[PAD]
[CLS]
[SEP]
[MASK]
[UNK]
!
"
#
$
%
&
'
)
*
+
,
-
.
/
0
1
2
3
4
5
6
7
8
9
:
;
<
=
>
?
[
]
^
_
`
a
b
c
d
e
f
g
h
i
j
k
l
m
n
o
p
q
r
s
t
u
v
w
x
y
z
{
|
}
~
£
¥
«
²
³
·
¹
ß
à
á
â
ä
ç
è
é
ê
í
ï
ñ
ò
ó
ô
õ
ù
ú
û
ü
##u
##r
##f
##e
##d
##i
##l
##n
##m
##o
##s
##h
##z
##y
##a
##k
##t
##w
##p
##c
##g
##v
##j
##b
##q
##x
##1
##í
##5
##7
##2
##4
##3
##é
##8
##0
##9
##6
##ç
##ú
##è
##ó
##ê
##õ
##ù
##ü
##á
##ï
##ä
##ñ
##û
##â
##à
##¹
th
##ou
you
##er
##in
the
##at
##on
##an
to
##ing
##ll
##or
##en
wh
##es
an
it
##ed
##ow
##ar
##is
##et
##ot
##it
##om
##as
in
##re
##ve
##ut
that
##ay
and
of
he
we
be
re
##ere
me
what
ha
##le
##us
on
##gh
do
##id
##ld
go
is
##ck
##ke
sh
##ght
##al
for
##im
don
kn
st
li
##se
##ver
this
not
know
your
##ce
##ch
##ad
##ight
my
was
no
have
##ust
##ir
##ome
##ith
##ould
##am
##ant
##ee
##ill
##ent
can
##oo
with
##ur
but
##all
##ly
ne
##out
get
are
they
##ion
##ct
so
just
all
ab
##ter
##hing
like
##od
out
ll
did
there
##ink
as
want
##ri
about
##ea
##her
##st
##nd
got
ch
here
if
up
pr
she
##op
##ake
him
##ry
at
think
su
##one
##ic
any
how
##ell
##and
##ess
##ie
ve
##ook
##ack
one
##pp
wor
##est
de
##un
fr
who
some
right
well
see
now
##ra
her
al
##ind
##il
##ore
look
ever
going
why
##art
say
##ive
sa
would
##uck
##ge
good
man
##ally
or
##ain
lo
oh
tell
us
yes
##ard
pl
tim
##ig
##ist
se
##ul
##os
gu
ex
##alk
when
his
##if
could
##ong
##ol
will
yea
yeah
ar
##ate
##ame
com
##ast
where
thing
let
from
##ven
som
##end
##ab
come
somet
##ound
##ers
time
back
##way
been
##ob
##ine
##ak
##our
were
than
##na
##ear
them
sp
con
##um
too
every
mean
then
##ick
##own
tw
##itt
didn
##ice
off
br
tr
talk
car
may
had
##thing
##ation
##lf
am
take
something
never
##ap
##use
##ous
fuck
ok
##other
ag
way
cl
##ose
le
##ough
call
en
need
##fe
##ody
make
down
mr
work
does
##ort
##be
okay
##ase
happ
over
##ty
really
sure
##ittle
bet
pe
more
little
un
mo
qu
##em
##ery
by
af
dr
our
##ause
should
##oy
bl
gon
gonna
##ace
guy
##ought
peop
people
kill
said
##ide
int
only
has
maybe
mu
##ber
won
two
bu
##body
mar
bec
co
##reat
##self
sc
##el
##ag
very
##th
##iss
##ect
day
hu
god
##oney
und
##ree
much
hell
##ure
happen
thank
##eel
even
##ff
under
year
love
give
##ther
##ish
anything
wr
##ew
##ving
bel
sor
##ies
##ite
##ity
ro
sorry
other
because
ask
hel
##eep
thought
gr
wa
nothing
try
night
feel
##ble
fir
##act
find
##ting
##ip
ple
doing
jo
##riend
##wn
help
im
long
new
again
into
life
##ning
sir
##fore
rem
wait
##ment
ma
##ue
before
put
##ta
##ud
em
##ather
must
belie
##pl
still
##ady
after
##ang
##ich
these
cr
##ade
around
things
money
first
gir
lea
##ass
po
##ance
thr
told
better
keep
##der
##ire
last
hey
sw
kid
##ves
old
##ways
prob
friend
##per
kind
please
##atch
el
ho
cou
always
##age
believe
those
min
sm
##ood
##iz
big
##get
shit
##ep
part
##ool
boy
cour
list
ad
great
##ence
years
girl
real
##urn
##oss
isn
ass
##ach
away
per
their
name
lot
##day
##ile
mon
home
place
##ft
uh
la
doesn
##ved
##ix
hi
##ise
fl
fa
hand
bad
stop
ac
everything
care
act
underst
miss
remem
listen
##int
sec
start
##ci
remember
play
##ath
##ried
stay
ph
run
##ild
##ory
dead
##ond
##pt
##og
##ouse
hear
three
id
understand
minut
supp
show
##ord
course
##ull
bus
dis
##ank
##amn
wouldn
##qu
guess
might
##tain
##able
huh
##ater
stu
made
##ny
tom
##iff
mind
wrong
mother
wom
##red
own
leave
##man
ain
##ful
else
##een
##atter
nice
##ia
talking
father
fine
happened
##ey
head
##ious
mor
##aking
gotta
house
ser
through
##oth
enough
##sh
##ans
wanted
##pr
yourself
##ock
someone
fucking
##ek
done
res
cra
inter
str
mom
dad
another
job
wasn
pro
getting
par
ins
##lem
came
sl
room
world
bo
##orr
##ac
##are
sch
five
##port
ya
left
tra
##ict
##ions
ton
##akes
##pect
##itch
week
##ught
che
hard
pret
being
thanks
##nt
##ever
saw
##ign
rec
meet
##dy
war
cont
##iness
##ange
##arl
turn
di
##ary
son
##erson
##ple
trying
app
guys
fun
comm
da
##ner
##pen
matter
##orm
knew
same
##hn
hur
went
looking
watch
##ub
##ated
##ife
gl
heard
##ro
coming
haven
which
ah
diff
four
##enty
##ctor
bab
seen
##mm
bre
cle
##ope
whole
six
fo
##ph
tonight
john
best
walk
##ince
##ons
plan
fin
word
##ian
business
##orrow
##xt
pre
##ars
person
pol
live
problem
att
##osed
##gg
hour
deal
##leep
acc
used
most
te
next
pretty
quest
killed
found
##ndred
hundred
seem
idea
fam
pay
comp
read
men
tri
##my
##ily
hold
sit
many
des
inv
har
##ually
##ible
morning
##ents
cap
wife
chr
##wh
sur
ter
use
##ister
##ett
couldn
once
says
called
##zy
tomorrow
woman
damn
ten
end
##ream
jack
pa
cut
without
myself
dri
stuff
##ably
far
bar
open
##ident
while
differ
bring
sho
##ors
##anc
yet
##ash
few
##ult
sen
bea
##orn
hello
##ready
baby
jes
pick
##ical
##ail
gi
##gether
since
school
wonder
met
point
saying
rest
pres
already
##ave
child
drink
ey
together
eat
##ead
##uth
sound
sleep
eas
ed
stand
check
##ason
brother
ago
unt
probably
##anna
took
forget
minute
die
shut
somebody
today
days
nobody
exc
exact
alone
##ird
##eet
doll
doctor
##ger
christ
gone
pri
second
crazy
worry
count
rel
such
wants
##eak
case
dec
hope
late
twenty
beaut
half
##pe
fig
fif
soon
gun
anyway
jesus
until
anyone
friends
##ouble
thous
cause
high
hot
thousand
##les
##air
cop
##sw
looks
interest
##raid
##right
break
##ize
##ark
book
##where
ev
afraid
##ither
hit
prom
##ition
aren
hurt
exactly
##less
##ib
##ins
law
knows
sk
move
ca
thinking
##by
mill
##ower
ap
##fect
supposed
bill
month
shot
##amp
##ott
mrs
godd
face
minutes
hon
wanna
##ost
youn
set
##oke
everybody
##rew
char
##unch
spe
gra
story
ob
town
gen
makes
aw
##ying
luck
bed
##vel
##ump
fight
##ness
##ating
##cept
true
poss
num
##son
kids
family
working
happy
eight
heart
##iful
compl
fuckin
##ah
door
sim
ready
##ings
##ime
alright
answ
both
lost
beh
trust
actually
wish
police
##ug
bull
##llow
##ork
question
pass
beautiful
married
whatever
##ations
##ane
sign
ind
gave
##ared
least
times
young
##ont
expl
##ied
having
different
easy
##iv
chance
hum
frank
##uss
bit
##ual
dream
air
mur
##ets
##gin
gets
sy
##ates
light
death
##vor
##ely
##ier
trouble
##ned
##enc
anybody
conf
blood
shoot
bra
col
later
##no
je
each
##az
close
##cial
hate
##ert
##irty
inf
phone
send
##ial
honey
##imes
pull
fact
import
mine
##ired
hun
cons
side
##more
del
speak
asked
mil
fire
##ress
black
cor
quite
##outh
##cc
reason
goddamn
##io
change
ste
ben
couple
##ne
everyone
dep
serious
##iver
##ames
##ude
disc
taking
follow
det
ge
inc
hours
captain
making
truth
mad
##unk
mov
##ens
inst
anymore
##ouch
comes
free
water
##its
important
##up
##ertain
expect
yours
buy
dollars
answer
eng
ret
lear
##land
forg
lie
din
##ention
telling
news
##uc
##ret
pict
##ax
##ward
certain
sometimes
##ren
funny
sn
stre
either
sick
##ding
##ison
sort
##ction
goes
fell
power
##ole
white
ele
alm
mess
##ped
coll
##ok
eyes
stra
body
##ush
bud
##eric
ship
dog
number
bur
##av
hands
inside
rob
pie
##ipp
sex
adm
##ters
def
cal
sweet
americ
full
##inc
means
es
pat
##led
##olog
sal
##ton
rid
##ject
##eral
against
sent
touch
pap
##ley
suppose
##ling
excuse
tried
party
wind
game
grand
star
##sy
conc
##iet
hus
though
win
##pid
##band
its
##aps
waiting
##hin
pain
country
reg
##orge
drop
##so
murder
women
office
##als
husband
jim
almost
pet
##att
along
##app
fall
leg
hang
sing
##side
##oice
##sel
art
million
behind
dra
wear
stupid
##arly
alive
daddy
red
thirty
beat
##artment
terri
##ient
line
died
lik
cur
arr
##ape
gre
sister
##00
finish
fifty
sus
sub
##ler
bob
tea
fil
##ator
perfect
shouldn
drive
record
##ms
betw
dinner
##umb
between
##teen
charl
##anger
boys
months
lou
sense
mem
##hh
worth
running
##press
ra
##ides
##aken
started
##ital
dear
city
##ks
##ield
safe
george
lady
##ised
living
clean
mag
seems
glad
maj
order
##ience
figure
##ures
##ughter
stud
also
build
street
mus
hair
##ured
ext
secret
himself
seven
hor
adv
##shit
ahead
prop
prof
##med
front
nat
test
##ys
cool
exper
president
rich
ann
lead
feeling
##ards
state
trans
mid
bitch
able
offic
abs
class
moment
sat
sam
unc
ball
##ike
##ote
##dd
##haps
ref
scared
perhaps
straight
##ited
outside
catch
chang
mist
vis
lock
less
##ps
##olut
children
dist
rad
imp
contr
##ines
land
##ru
brought
favor
##itting
happens
write
small
lose
##any
##ider
sounds
ent
dest
##ense
##ten
bank
dick
med
##ows
bullshit
mart
till
girls
special
buck
somewhere
ru
prot
complet
fool
##ined
mary
wer
cold
york
king
lives
promise
key
sell
shall
explain
human
weren
fast
poor
mer
ow
asking
##ief
fre
report
##ics
nick
save
mas
##ric
daughter
squ
##aw
##ram
weeks
harry
surpr
##ats
wall
er
los
clear
movie
bes
imag
throw
pop
ty
##ility
add
cent
dire
##osp
needs
inform
dark
mouth
coff
psy
##und
pleas
taken
goin
##airs
pos
##ony
psych
kiss
##dle
##ster
##ically
danger
food
##ount
past
##erv
##lly
possible
control
jer
##arth
##ubl
piece
hosp
dou
dress
fel
cover
company
oper
paul
##iting
except
mark
lucky
##uce
top
rep
fly
tired
teach
##ugh
##oc
##ship
step
picture
gent
##omb
##ama
thinks
##vis
##oun
##gan
##ze
##gry
tot
quick
##iew
fair
bother
leaving
fix
sun
cond
resp
##room
vi
looked
words
wonderful
learn
##icul
stick
##stem
##ract
hospital
##erg
priv
buddy
protect
mich
##vin
known
offer
wal
##ced
hotel
##co
nine
##bt
super
carry
mister
ought
system
pur
##ale
##ern
##cks
##amed
worked
##ior
##vid
calling
max
flo
##ative
coun
absolut
##he
playing
##ency
rather
##oul
questions
miles
dan
pal
##fort
##ces
none
##irt
##uts
begin
accident
coffee
earth
park
blow
honest
jud
pen
ride
##ones
cla
smart
##zz
publ
##cent
joe
##selves
tre
##unt
##ized
bag
burn
press
##ession
parents
ray
##lin
disapp
general
attack
##ove
serv
personal
##igh
cann
road
works
train
short
kidding
takes
outta
clock
mach
##eed
##ode
rose
vict
worse
spend
besides
bast
##ma
cost
honor
laugh
music
##arr
##idence
##ants
certainly
darl
boss
meant
court
major
respect
bas
mis
others
consider
near
cry
treat
##fer
command
interested
pack
##ald
##br
doin
smell
creat
date
##iot
chick
jeff
##me
felt
absolutely
deep
seeing
val
dev
##ately
drug
eh
lar
##vers
simple
unless
marry
meeting
cas
quiet
handle
ir
##joy
enter
eye
paper
david
feet
kick
##go
##terday
yesterday
##ists
##ift
swear
giving
breat
cab
loved
slow
##ific
##ept
ord
turned
tele
ill
##ael
sol
assh
cops
cloth
charlie
stri
conv
sid
##ene
conn
fucked
fault
dam
##ities
rock
invol
##ball
##oose
invest
apartment
anim
prison
army
hist
jun
##die
##bor
aff
blue
grow
information
##lish
talked
become
strong
bir
tur
##ef
##iam
prog
##ming
suit
##ances
nor
hop
ran
caught
##ney
weird
choice
lawy
michael
bird
##ues
##inger
knock
american
bor
bri
lord
tough
wel
ups
enjoy
plane
paid
lunch
tick
reach
sold
strange
boat
return
cannot
gold
pract
bath
##ged
##esh
##eth
worried
dem
clos
##ully
clothes
jump
ones
chief
##roy
##ls
##vern
sev
nothin
goodby
mistake
##ik
den
mention
##uation
##vious
hasn
fut
sher
cross
careful
hurry
relax
pea
quit
goodbye
lay
ta
um
##gr
##ories
##ette
given
ring
sand
vir
doubt
##uff
middle
walter
jew
##ives
##aa
foot
radio
cash
early
##come
moving
twel
drunk
twelve
norm
neg
birth
fed
low
ris
##cri
##ury
bye
happening
busy
difference
brain
##over
##ently
building
detect
destroy
tor
anywhere
##ages
born
fear
kept
##nes
forty
terrible
imagine
public
bust
mot
##gn
comput
trip
bott
piss
tv
##cess
broke
truck
figured
jimmy
changed
base
mama
form
store
screw
##yn
kinda
box
appre
watching
##mit
##bers
agent
19
wit
##itive
esc
sitting
##ina
hid
main
sake
wed
##bo
##lex
##ided
govern
fifteen
peter
uncle
private
cat
evening
lying
##illy
##ational
commun
entire
history
bout
dun
future
james
##bed
##erve
doc
##oof
longer
##oud
liked
bucks
jail
##night
##ety
carl
killing
acr
lad
##ular
##ission
##ments
interesting
dig
floor
cam
##ov
##ench
respons
camp
##old
##ism
dude
finally
problems
completely
appreci
mike
##oken
welcome
bomb
wake
wood
##tin
##uct
##ping
##uring
arm
glass
darling
upset
card
##oid
##used
space
ice
##mas
dance
ell
fort
letter
team
hall
##urity
##stairs
calls
ble
##uke
##ilt
loc
cir
cig
occ
##orth
officer
dangerous
fat
johnny
obvious
gar
green
asshole
third
neigh
board
books
window
involved
nin
sil
needed
roll
situation
service
circ
rom
##key
sudd
possib
sudden
sad
##gar
##ili
self
ger
##ray
##ots
##ume
jake
##ring
##te
club
security
prep
arrest
horse
proper
van
station
message
viol
##ounds
join
discuss
english
bastard
table
somethin
##oup
##idge
allow
killer
realize
evil
eve
shop
tem
account
fish
gee
nerv
opp
##yle
afterno
picked
dumb
tast
west
##rey
fred
track
emb
stopped
natur
nervous
island
instead
likes
peace
fill
sett
soul
voice
belong
across
afternoon
fol
heal
beg
prod
machine
bunch
hom
wow
##fully
##oint
spl
steal
hmm
present
cast
mac
alex
cong
ver
chur
impress
eddie
forgot
finished
##ering
requ
mir
church
ear
##how
##cut
##ino
force
lived
suck
decided
bought
##imin
neither
forgive
owe
##urs
sugg
calm
pleasure
named
##ium
lawyer
##ann
##iter
hero
phil
colle
wearing
totally
disappear
cigar
age
mod
wrote
contin
driving
christmas
ce
cook
south
##iment
##ogra
prove
visit
program
##pped
pictures
witness
cow
tape
##atic
apolog
field
idiot
cell
##lo
##ipped
connect
college
san
##ices
##cially
direct
appreciate
suggest
russ
##aven
gotten
computer
dying
gard
phot
hungry
corre
##ians
##nie
##to
##etic
french
william
##lfriend
fail
staying
price
charge
est
girlfriend
lots
missing
hardly
threat
accept
surv
wild
##ills
color
lim
##ana
emp
missed
##mmer
standing
##avy
av
fur
hook
##une
arg
louis
##inite
hadn
moved
contact
deliver
equ
weap
nose
##tern
marri
joke
hide
##ugg
ant
##etch
post
lab
##ky
##work
pray
america
##view
##bi
##ination
##uel
load
movies
ange
amaz
ground
listening
elect
surprise
round
##ether
##uten
crime
department
master
##fuck
##oon
princ
holy
##ogn
seconds
bow
##eng
usually
putting
travel
lieuten
extra
investig
band
gas
sea
##king
heaven
##lemen
appear
dreams
single
hol
stuck
sail
planet
song
##xic
smoke
gives
hy
push
##hood
##arch
##ute
suff
##aces
detective
saved
recogn
sens
awful
depend
correct
cre
##ened
##iday
draw
beginning
birthday
dat
##ham
ways
enem
phys
papers
lieutenant
earl
##bb
beer
mission
film
government
pard
forever
quar
ted
share
##ules
block
attention
suspect
type
##ica
folks
##attle
rain
##cy
loves
divor
obs
sheriff
fas
gim
gift
twice
address
judge
##form
##vy
whether
neck
partner
appro
reading
##uthor
spec
exam
comfort
##cious
terr
neighbor
##aine
blame
percent
starting
trick
billy
records
cust
gh
pin
yell
##ius
##mer
##uty
using
bro
remind
walking
##pecially
evidence
especially
experience
imposs
ken
##ye
fired
##place
crap
collect
definite
##vision
##bit
##ified
const
wedding
aut
op
rub
river
silly
##friend
plenty
spir
talkin
clar
cred
memory
gentlemen
camer
pot
roy
##owers
wash
whose
guard
exce
level
faith
dollar
relation
guns
position
normal
fit
jul
nuts
pig
rick
##ature
notice
##ify
paris
admit
code
##onel
guest
tech
skin
marriage
impossible
feed
hen
lee
mc
##ager
host
boyfriend
promised
fighting
admir
animal
ju
beach
##iced
tight
tap
##uit
##ution
search
spent
drugs
aud
pan
pil
ther
##ille
wondering
grab
martin
jerry
orders
note
broken
civ
north
sle
##bur
##icide
hole
fellow
tax
##otion
plans
agree
gimme
during
names
tal
##ted
##ries
##icult
##ished
holding
brothers
bathroom
##ograph
finger
##lor
exist
ourselves
writing
smok
acting
ridicul
pardon
double
##ron
asleep
organ
exp
##aked
intell
closed
##aged
difficult
walked
relationship
cup
rent
vac
##au
##por
blind
group
pretend
polit
crew
wheel
grant
tommy
##pens
cute
bat
coo
dump
jam
tar
tow
inno
washing
spot
intr
buzz
lovely
feels
keeps
terrif
ridiculous
bal
view
##fast
andy
proud
franc
tells
moon
ide
weekend
charles
loose
##ender
bridge
crack
decis
breakfast
bobby
fant
fbi
jan
##ral
##la
##gu
##ires
butt
summer
grace
egg
port
##den
##ka
##itor
particul
surprised
##zen
bear
jen
mitch
mmm
##ese
angry
mexic
area
##astic
betty
crash
sleeping
amazing
definitely
##ners
mel
##oph
locked
condition
lam
##ges
keys
danc
lang
##kes
##bar
##boy
thom
often
fright
plus
arri
crow
##ption
colonel
concer
health
##men
##of
##que
rece
worst
meaning
swim
nur
odd
##ai
##iny
gettin
scream
##els
yah
pulled
learned
ori
##iant
##ches
##ada
##ston
champ
##itten
univer
feelings
object
advice
risk
file
##ez
##bs
##ero
stories
upstairs
somehow
##ploy
crimin
seemed
profession
ke
sar
tear
##here
##pap
stole
waste
herself
prec
copy
nature
favorite
dirty
mal
##itude
##esty
clim
cock
##acy
chicken
devil
##ishing
weak
bell
##ung
leon
motherfuck
contract
gentle
mass
##ss
##wise
iss
shar
##oop
within
brown
agre
##ips
action
jean
seriously
subject
##heart
##read
knowing
chea
built
scar
rules
##val
heavy
necess
places
patient
##ountain
bod
mix
rout
##ended
scott
swe
##ints
##ancy
las
repr
willing
eating
event
apart
marty
victim
nurse
succ
queen
scene
pock
holly
played
##ences
##ology
jeffrey
obviously
civil
fe
##za
runs
turns
sixty
decide
##arrass
embarrass
split
##ength
techn
##wood
##par
ital
chair
keeping
common
##while
charact
profess
breath
ghost
excell
washington
author
ef
fle
games
match
rough
tree
##gas
##ises
shock
emerg
taste
henry
cree
nig
yo
##min
forward
stock
##iforn
convers
bruce
support
##otten
californ
settle
gri
path
##rat
##rick
##ander
##bert
craw
insane
harm
shoes
##ruct
gal
pu
page
tie
##light
##gue
weather
onto
project
sooner
simp
raise
study
apologize
opin
concerned
000
##eg
stan
ash
arch
##ument
sym
corner
detail
complete
california
luc
nah
##ging
soft
##oyd
smith
career
##medi
dunno
data
credit
admiral
effect
ign
##urance
goodnight
warm
gener
hanging
medical
freak
aye
les
##yond
beyond
##icated
##olf
comin
spee
immedi
greatest
flight
ident
newspap
robert
seventy
german
innocent
ber
bon
sight
ug
##iest
##isf
heh
seat
perform
monster
attract
desert
sweetheart
losing
possibly
custom
30
##rop
##line
##head
amb
showed
television
##cer
fore
states
proof
otherwise
teeth
##ettes
dropped
murdered
richard
purp
ticket
hiding
success
wes
##aff
##ano
stone
##ulations
assist
incl
incred
horri
empty
professor
cous
ly
lone
pool
rome
ur
##ration
shark
stat
lookin
starts
harold
legs
cheap
mick
rand
tit
##ki
noticed
##bel
switch
lately
training
victor
afford
dar
due
duty
hat
jour
sant
##ford
cha
fresh
tru
marsh
heads
paying
drinking
following
majesty
suddenly
##house
##ena
##itz
##omm
##oming
##antic
##icle
##rage
bright
senator
fella
taught
responsible
natural
introd
jason
tour
##eter
lic
lied
dave
personally
famous
discover
intellig
du
dor
mountain
ol
lift
plant
nightm
interview
numbers
##wards
magic
##time
##ores
itself
##ased
lloyd
whoever
farm
drag
large
simply
boo
dry
gang
ros
vol
##aur
ham
dont
sund
science
trial
desk
curious
danie
commander
character
kitch
size
##amin
sport
scr
prefer
rule
norman
origin
emergency
opinion
kitchen
eth
kay
mcc
wine
##iat
shhh
comb
letters
themselves
##ization
mommy
committ
goddam
speed
request
further
east
nail
rap
sour
##lu
##ker
##town
##ites
##ste
whoa
##akin
brit
brad
insurance
passed
speaking
enemy
decision
pocket
lonely
mm
##arm
heat
##imate
sees
scot
grad
helped
mail
laur
descri
checked
shooting
garden
spirit
langu
ban
fan
gam
pants
rum
##let
##mission
##gest
##usion
##ils
airport
satur
satisf
ladies
kr
vide
wise
##field
##da
nope
vegas
sever
##ula
brand
scare
bigger
shows
intern
beauty
complain
milit
engine
susp
claim
virgin
opport
recognize
terrific
gall
lind
held
##alous
myster
friday
remain
hunt
perfectly
##iliar
opportun
jac
lake
rip
matters
mostly
##velop
eleven
dogs
junior
camera
##stein
saturday
10
hired
rat
##gen
##gie
thou
whis
##lyn
arms
everywhere
cars
older
mons
deserve
damned
lights
positive
bottle
repres
conversation
cy
ram
ven
##ha
##ville
##ered
repe
liar
sword
##achel
laid
##ibility
concern
bottom
congrat
ugly
til
##ien
##ening
meat
##essed
appar
##orney
excited
##ground
thomas
bond
non
net
pounds
vill
wil
zero
rele
stars
suicide
bug
familiar
indian
jealous
quickly
escape
comfortable
horrible
lond
ye
##nel
##cus
weight
sugar
nowhere
##ilty
guilty
hearing
attorney
indeed
snow
practice
ideas
bodies
speech
cit
hors
luke
##oned
upon
log
imm
employ
design
doctors
sky
communic
gentleman
truly
london
11
dise
fem
gord
lines
rab
rev
haw
shr
##icious
client
pregn
arrange
expert
distur
director
closer
aunt
corr
mut
oil
tun
##gle
##asons
react
storm
exe
brill
##ago
written
adam
answers
square
carrying
crowd
dom
##ees
##ining
##ising
##ids
##cha
sue
spoke
cares
leaves
strength
surr
bringing
broad
vacation
eur
kir
row
##ued
##inct
##inary
##eds
stom
justice
sometime
energ
became
serge
madame
total
crying
sevent
criminal
immediately
cousin
aust
wound
##ived
knife
chop
##icy
##earch
watched
pete
susan
magaz
annie
animals
cooper
sunday
ba
borrow
jos
mood
tall
threw
shirt
scient
poison
biggest
england
loud
dressed
excellent
purpose
cards
national
##bing
soci
develop
spock
##iction
accord
driver
signal
buried
hoping
blew
local
property
bum
pure
yep
##oat
##af
##asy
##uses
##ality
trade
expecting
pieces
balls
danny
pissed
allowed
sergeant
##iers
youre
theory
above
express
scri
joey
##gging
cele
mexico
execut
20
bay
bare
map
pump
##con
##va
##bon
##bly
##elle
manager
expens
assign
pair
##ipper
pressure
birds
mirac
depends
divorce
mickey
celebr
bite
cream
len
ot
punch
puss
##ients
thir
##ato
##istic
spare
emotion
commission
##roll
brains
sales
extre
jerk
operation
damage
turning
weapons
language
awhile
cub
corn
ears
kar
mat
naw
pun
##well
##orter
##asion
##aker
##itty
united
access
jacket
bloody
sneak
##ledge
neighborhood
necessary
license
citiz
ment
tip
##asing
##ented
social
chic
usual
quot
drove
writer
nights
helping
believed
shower
research
easier
sin
##pir
##using
##ades
deg
roger
##ache
flat
secretary
center
teacher
##board
motherfucker
jose
mob
##ya
##iner
##ida
coat
assume
johnson
planning
##gged
opened
bedroom
magn
market
teleph
federal
quarter
faster
francis
professional
british
opportunity
energy
oce
ry
##back
whom
##ita
##sey
choose
lemm
##ffic
sexual
legal
leads
medic
larry
busted
europe
cart
na
patter
##cle
##ored
doors
ate
unh
##anged
flowers
babe
defense
files
flying
bones
fund
mort
##uz
##nin
someplace
understood
serve
tex
eighty
eighteen
regular
##fortun
enterpr
russian
smoking
congratulations
nic
wire
chap
whenever
unfortun
buff
scre
throat
inspect
breaking
aware
followed
sidney
fortune
princess
approach
incredible
apparently
lemme
18
battle
hill
karl
pink
tay
##row
##bage
reasons
shape
stink
stew
plain
spring
among
ours
##ipe
swell
appoint
restaur
boring
lap
prim
however
##oles
enc
unl
blank
stayed
picking
benj
##inese
naturally
stomach
according
script
jab
kane
lis
ms
nut
vamp
##tle
butter
saving
leo
surely
tryin
clever
final
surf
expected
disappoint
strike
mentioned
hollywood
gordon
taylor
rod
witch
##uh
##rant
##gy
tooth
shame
##che
depress
##ending
##ement
##empt
desper
milk
forgotten
century
continue
weapon
target
eggs
pregnant
led
nap
rush
tong
tank
tail
vul
##ox
##gers
##itions
chinese
letting
cole
joint
hild
plays
dealing
refer
mask
burned
cabin
survive
particular
gay
nons
##ule
##ga
anna
stab
##ceed
chain
trad
trunk
elaine
sonny
elev
freed
cigarette
includ
jane
sna
wet
thurs
reck
rever
chem
print
manage
loy
##ulation
attitude
grave
steve
##under
bleed
prepared
mitchell
military
disease
brilliant
ocean
nonsense
cos
hated
math
##rate
##ture
##erm
anal
##lect
shield
##elly
##ilities
separ
amy
clark
blond
activ
funeral
awake
behav
bullet
streets
concent
fixed
tapes
enterprise
thursday
bern
mall
##ror
##res
##kins
alb
alan
##osition
##iform
downstairs
grown
disp
disg
trail
accom
baron
##ipping
falling
covered
negot
destroyed
responsibility
cigarettes
joseph
dish
fab
mater
pear
##mon
##oci
##yl
##tor
##arant
dozen
lif
chest
guarant
uniform
##izing
prov
ends
##ruction
disappeared
williams
earlier
issue
represent
pussy
chicago
pattern
benjamin
12
dust
jess
pow
vall
wade
##ket
##imp
lies
##pping
saf
seal
##ateful
impr
associ
monday
flor
player
recall
virus
woods
silver
pilot
dancing
daniel
loyal
mere
sally
##uction
##ders
##ij
##lt
##zo
##itation
chances
deck
carp
moves
thoughts
kidna
smile
fac
strang
process
recomm
changes
ruin
negative
anti
investigation
physical
sweat
video
several
society
hildy
negoti
15
fing
junk
ox
pee
rh
roof
##oices
##ts
##ini
knowledge
##stand
unf
buying
finds
finding
##othy
insist
opening
sending
typ
garage
frightened
italian
dies
fer
fake
hm
pian
##case
inj
##unce
spell
showing
tony
brave
powerful
county
clarence
newspaper
cult
dirt
fal
hire
jon
pers
rate
##down
##esar
reed
staff
##ila
##asty
coast
waited
##aced
##gger
created
practically
terror
##father
##eal
theo
toward
whore
sched
artist
ordered
hates
jones
jury
lat
pir
##ym
shift
tellin
actor
invited
laws
midnight
hyp
therap
agreed
restaurant
cath
pills
var
##ux
noise
likely
thinkin
##iling
amount
huge
parts
reality
trap
clearly
charming
signed
##ension
paint
transfer
psychiat
entertain
baseball
slept
jap
mile
nun
thor
shad
china
##ieur
france
rights
##abitch
downtown
##athan
diam
commit
sixteen
compet
ruined
oughta
garbage
princip
sailor
dorothy
nightmare
monsieur
ep
eric
nerve
##oot
##eday
hal
stol
##vert
cancer
##rap
someday
talks
clay
betray
unus
carefully
caesar
confused
riding
selling
opera
breathe
ellie
romantic
royal
talent
dare
dign
naked
pant
rare
va
##ex
##nn
##oved
thy
##ators
whad
beck
liqu
lips
##ural
##rie
beth
drown
firm
partners
slight
meth
drinks
hurts
touched
winter
##olution
laughing
illeg
arrested
connection
avoid
kenned
sarah
jacqu
tongue
behavior
dent
wend
##iod
##ios
##enn
style
soph
uns
rooms
fourteen
planned
policy
thousands
##swald
hunting
##uced
##ological
experiment
lesson
pleased
reput
steph
creature
brief
tickets
occur
repeat
magazine
telephone
ryan
freedom
diamond
bang
gate
hoo
opt
oswald
pier
sed
tent
yard
##rets
##fle
##oll
knight
chew
margo
emper
poet
period
heading
jackie
cowboy
angel
fantastic
univers
screen
material
unusual
bart
muse
ooo
pad
ron
rachel
woke
##gl
##asure
##icate
maid
##ashed
prior
relig
##ologist
temper
intelligence
horses
stolen
kennedy
gear
wolf
##for
##nal
##can
##ushing
##eez
nearly
##iles
lets
realized
##iac
jobs
famil
##etti
jesse
decent
genius
complicated
confir
pulling
burning
defend
member
central
counsel
product
hmmm
congress
photograph
yellow
santa
emperor
cher
dum
grew
guts
pill
tab
vice
##reck
##ched
wasting
armed
spread
cloud
lect
coke
grateful
swing
sla
walks
attempt
ended
checking
younger
simone
corpor
instruct
murderer
banks
nicky
solid
##aaaa
glasses
circum
fasc
scratch
100
##nis
thief
##rel
starl
dece
alth
loan
carter
score
result
sonof
invite
##ashion
incident
##ucle
loser
honestly
soldier
example
foreign
texas
fingers
japan
cents
gain
pity
##eer
##iber
##oom
##agh
##cl
##erves
##ona
##aster
beam
##ential
cance
intend
headed
brings
millions
passion
humor
frankly
offered
occasion
belongs
impressed
create
mixed
details
original
reputation
museum
mic
nasty
por
pour
sie
wy
##lies
##mond
##off
##ware
toil
##otic
reward
whatta
liber
##urt
sean
spo
twist
holl
resc
prick
obl
##ival
facts
official
ninet
arrived
pupp
source
linda
female
piano
families
fancy
fashion
joy
matt
rig
range
tues
##ele
##cul
##bling
##eration
theater
web
forced
alice
##itted
underw
friendly
permission
slip
cheese
exciting
falls
singing
sisters
distance
##rupt
squad
psycho
claire
castle
equip
screaming
universe
nigger
introduce
miracle
jabez
safety
although
tuesday
fought
nix
rail
tied
vinc
##ige
anne
##allow
chat
pred
shel
deb
alarm
unit
bure
##thy
grade
##atherine
monkey
flesh
acqu
terms
edward
kicked
bored
ninety
electric
climb
ashamed
assistant
extrem
lisa
25
fried
lous
nucle
pent
##dom
##arily
shake
section
##osc
spoken
assum
desire
terry
passing
curr
trees
convinc
growing
progress
soldiers
hidden
guests
seventeen
barely
appointment
circumst
bound
boun
cad
cake
duck
hob
naz
pitch
ren
race
##oe
##oard
##sa
##kin
##wich
##erc
##anz
##enture
aboard
aside
##ucker
contain
##ouses
##eless
##agne
impl
flash
commer
babies
shoe
wondered
explos
painting
penny
smells
escap
audience
lenny
equipment
aven
dea
fag
gab
mack
rag
##oh
##bles
##itution
sha
##cher
##ante
agency
afric
kills
male
insult
traffic
##road
desp
surge
points
##ception
confidence
starfle
student
##ocol
systems
attacked
demand
motel
screwed
filled
autom
tower
sharp
route
attractive
committee
village
sonofabitch
lousy
starfleet
cure
dim
kat
mul
miam
tits
stage
chin
howard
fucker
scary
recover
term
educ
diego
shots
benef
learning
patrick
statement
counter
lawyers
model
journal
valley
miami
gig
lor
mum
##iation
thin
##atory
knees
libr
##rict
wayne
affect
bless
##ague
kinds
mont
capable
priest
bills
regret
wallet
popular
##load
divorced
panic
odds
creep
title
chaunce
expensive
citizen
medicine
desperate
including
reckon
nuclear
chauncey
bun
dip
hay
teen
ves
vada
##lus
##ses
##ca
##ares
##isc
##ases
repl
hack
gosh
prince
sayin
##olic
wherever
offense
coinc
##agon
##izz
cheer
##phy
frankie
##nold
hung
advant
value
knocked
loaded
eventually
discovered
disgust
bail
lack
pic
peel
wide
##cil
beast
dope
stood
novel
##rib
fro
season
guards
##uments
mayor
gray
courage
phill
preach
tricks
##ailable
easily
edge
miller
explan
steven
##ensive
freez
regard
memories
deny
russia
victims
kirk
emotional
blonde
jessica
extremely
batter
bax
cia
hanna
tub
##ially
##mother
##aid
##verage
chall
chann
exerc
##icks
union
hud
image
puts
thrown
resist
craig
trace
harder
fourth
bread
bullets
snake
studio
superman
misery
breathing
brian
sandwich
basement
holiday
champagne
ethan
guarantee
baxter
fi
fate
fishing
kim
kent
nar
patch
rib
tend
vit
wing
wid
ward
wreck
##de
##erence
toss
rex
reven
wanting
cham
shelly
dew
comr
##agn
kidd
secrets
series
trained
recently
harv
cutting
barbar
signs
handsome
americans
walls
affair
community
entirely
mirror
failure
political
healthy
performance
release
shrink
francisco
unhapp
recommend
illegal
bureau
cyn
rack
##iving
##mo
##oir
##vi
##book
theat
##ales
chuck
anyhow
albert
carried
moz
qual
shoulda
blast
remark
crit
fav
badly
stretch
appl
hundreds
surg
barn
fifth
goddamnit
steady
engaged
sweetie
terribly
transport
reporter
bastards
considered
casino
dammit
ranch
prepare
stealing
impression
available
janet
pathetic
tunnel
inspector
accompl
toilet
horr
kath
lower
tiny
##hip
##gun
##anie
##ara
##itute
reh
liz
##ador
##stone
suits
##ella
veh
fruit
##ulate
##ability
eliz
understanding
prev
metal
higher
louise
officers
vision
foolish
throwing
spending
miser
cases
jewish
possibility
authority
laura
karen
aim
cert
eff
ku
lun
nathan
os
pist
powers
rope
ut
vote
whist
bein
chasing
##aint
lob
spook
becoming
scan
league
adj
launch
minds
boom
warn
dreaming
influ
reasonable
determ
grandma
members
cleaned
destiny
iron
demon
philos
enemies
ricky
jeanne
routine
mystery
elevator
schedule
cats
catherine
dil
jeez
ned
ou
vers
##nam
thumb
thee
##imony
stamp
outf
pros
sale
sacri
lover
##uman
brook
trou
agnes
blah
##eline
flatter
reserv
proced
apple
dawn
chriss
##ivid
murders
confident
robins
grandfather
cleaning
tests
leader
changing
dickie
protection
claud
bags
slowly
border
motor
gardiner
precise
satisfied
rabbit
thirteen
spoil
nineteen
explanation
mozart
50
bour
gut
umm
##rance
##ique
##pher
##vable
##bl
##erved
thel
##uther
lip
candy
neil
aband
##ril
chase
##anda
frances
sac
##abeth
workin
drum
below
helen
serial
proceed
standard
interests
##azz
goddamned
bury
arranged
greg
refuse
direction
jews
directly
champion
pearl
circumstances
vessel
ach
bible
dud
drew
liter
ult
viet
##ygen
##bery
##xx
##oted
##rees
##iring
##oops
button
##icles
exch
##ols
clown
##play
crush
cruel
boston
focus
finan
barnes
highly
confess
fellas
staring
register
susie
convince
federation
shopping
holes
sensitive
particularly
ignor
romeo
unfortunately
florida
oxygen
unhappy
dall
diss
diz
et
gather
ii
link
ped
##rack
##mp
##kn
##inting
##enna
##esa
##omes
heather
doyle
stairs
cand
##sty
chip
##iece
##ilar
##ifer
##icked
##ittin
march
marks
swallow
parties
morph
warning
ahh
fox
capital
##anced
hits
charges
compliment
confession
conference
retire
fully
doug
bothering
respond
parking
machines
based
ordinary
ellen
bowling
appears
juice
disturb
therapy
elizabeth
sacrif
bone
cere
gale
makin
nurs
pound
tag
yup
##rated
##edy
##isher
##omp
##ado
##pper
lois
##ulse
gods
minister
assure
owns
skip
admire
experi
loss
purs
suffering
otis
dallas
dime
nation
virt
zone
##uate
##atives
anx
thats
meal
habit
##kee
mole
cru
crook
assass
##cient
remembered
stands
caused
pleasant
##arrow
darlin
assholes
produc
labor
politics
describe
shadow
wendy
university
rescue
revenge
navy
##rist
##fred
##we
##bid
##bled
##aring
andrew
##lder
stake
notes
worm
orange
plate
##istry
##ulous
mustn
thrill
smo
flag
served
engage
governor
##ovich
settled
alexander
argue
argument
jamie
swimming
kevin
josh
surface
false
fascin
starling
advantage
bert
cob
cott
duke
fuel
kil
kurt
porn
punk
##worth
toby
##aries
review
haul
doe
golf
chocol
sheila
loving
spin
##umn
clin
lex
minor
badge
##icted
warri
##plex
##ggy
termin
worrying
madam
ships
windows
palace
burns
considering
ghosts
lester
network
reaction
bleeding
jacqueline
effort
claudia
14
13
bump
core
dy
dough
fee
han
jet
lyn
sore
tas
##uable
##rog
##ev
##eb
##caine
whack
##oms
init
replace
lick
##ader
##rier
##ops
bride
env
blown
cocaine
warrant
decl
shotgun
graham
trusted
instinct
sexy
patients
curse
mistakes
basically
treated
football
occup
constant
embarrassing
tradition
vincent
narc
miserable
21
der
lit
mason
rot
tu
tan
zoo
##ris
##ties
##oma
infect
shore
outa
pride
##raft
altern
alien
goodness
##osing
span
mars
underground
##ples
diane
hurting
trigger
barry
presence
charley
delight
depos
robbed
winning
leading
conduct
counting
basic
misunder
package
stronger
turkey
neighb
##burg
taxi
jenny
ambass
method
frozen
thelma
bars
duff
fart
gest
horn
hills
houses
lu
mam
wings
##uing
##gain
##onse
##onica
ancient
##otch
##vey
heck
beef
reb
noble
##aming
##ura
##rian
##ication
deeds
##rael
sem
sew
willie
conven
rocks
helps
lotta
secure
tries
holds
individ
humili
darkness
claude
closing
jumped
##nesday
wednesday
homer
empire
##bbie
lucy
##ropri
##belie
journey
surrender
lifet
wyatt
chocolate
bree
cave
gus
pac
rif
rud
sink
takin
##lv
##path
##vity
##enger
ang
inch
beating
stones
neat
##outs
debt
debbie
alco
manner
agg
shoulder
marge
becomes
joking
jokes
cris
adult
faces
mighty
johnnie
precious
bargain
figures
skipper
instance
raised
jungle
jewel
location
violence
commercial
avenue
hannah
robinson
smooth
cotton
ambassador
jill
kin
pit
wat
wig
##nifer
##ww
toy
toast
anth
forth
##sequ
##chan
##illa
neut
shell
sheld
fran
seek
coulda
conce
clo
happiness
asks
gross
believes
##pert
##epend
stops
##quis
eaten
setting
##enced
basket
strict
sandy
dunbar
tempor
homicide
estate
estab
jennifer
embarrassed
suspicious
mental
degrees
instructions
escaped
coincidence
financial
alcoh
45
40
60
cu
cage
cable
ded
ira
jus
nort
rug
tatt
##dia
##li
##ois
dod
##adem
alley
##opard
atl
sucks
##ico
herr
##oses
arth
spr
truman
unbelie
belt
stroke
stranger
strugg
parad
recon
function
attend
giant
checks
events
lawson
genes
passport
indust
grandmother
##apped
testimony
announ
bothered
personality
valuable
begins
veronica
angeles
bowl
suffer
customers
lydia
volunt
separate
oblig
railroad
convinced
horror
outfit
17
fry
git
ni
rank
soup
##oes
##aign
##ktor
##wray
##jack
##bows
began
ford
stor
stiff
##enth
ability
##odes
ast
chart
##ician
alter
sav
plastic
##uls
exit
agents
##ortion
intention
scen
supper
##prints
slipped
boots
trapped
glory
glenn
pays
trib
chris
useful
movement
possession
delay
sentence
singer
viktor
parker
treasure
golden
freddie
objection
successful
mountains
scotty
revolution
reverend
provide
nixon
africa
mulwray
library
exercise
barbara
theatre
adjust
philosoph
exchange
individual
bi
bol
dull
dating
fri
gary
hitting
ja
kit
piz
puff
##uva
##iable
##mar
##hib
##walk
##erk
shakes
forest
steel
chee
dean
##race
worker
mud
marcus
grass
wave
academ
actress
supply
##quir
paran
warned
breast
useless
senate
sounded
billion
independ
deputy
salv
satell
mercy
beside
solution
document
campaign
freddy
witnesses
delivery
received
tears
newspapers
intelligent
scotch
ripley
assignment
degree
carpent
pirate
disgusting
##ropriate
lifetime
pizza
average
ease
etern
hes
kate
lung
oak
ruth
vince
inn
##rell
israel
shown
##oooo
wore
alert
complex
background
clue
cliff
blade
asses
handed
bush
##ansas
boot
senior
patr
patience
article
subst
cryst
##ification
torture
geez
failed
species
collection
existence
cockta
psychiatrist
webster
chamber
24
aid
cri
dw
hatch
il
mig
nik
rise
##moon
thick
##reg
mechan
forces
stall
##eeze
##ryn
sulu
##essa
woulda
##ulf
##osite
spy
spill
unp
killers
helluva
joined
flow
stopping
supplies
##ordin
moral
struct
booth
schem
##onscious
skull
awfully
colon
column
honeymoon
instant
freeze
budd
beats
district
device
enjoyed
closet
former
elliot
fortun
sucker
ignore
western
committed
snap
chemical
loyalty
dignan
japanese
influence
neighbors
arthur
bul
hust
mate
tig
##fl
##ec
##mber
##gent
##bits
##aton
##esc
anger
whats
steak
wanta
ath
atta
anytime
##esth
hers
sab
saint
gum
##ears
everyday
##apt
scra
##agger
grady
hock
perman
monitor
homework
flies
flower
phony
headache
struck
compan
capt
editor
policeman
salt
touching
legend
filthy
advance
##yster
satan
##ocr
privile
protecting
services
packed
creatures
reached
crossed
escort
silence
cells
julie
julia
berlin
virginia
whiskey
surround
liquor
underwear
channel
precisely
establish
200
fever
hood
hank
mck
mant
nest
pages
roth
rude
sack
tam
vick
voices
wand
yards
##rake
##mate
##ba
##enge
angle
height
bee
##verly
##ications
compr
spect
consequ
marvel
remove
poem
laund
interf
slave
##roit
planes
polite
dealer
prize
breaks
hitler
##otted
dreamed
detroit
robbery
##hhh
profit
reports
pops
psychic
trem
returned
coward
photo
reminds
washed
sympath
germans
international
unlike
vampires
##force
surgeon
comrade
pistol
brooklyn
bid
bald
cuz
fence
gitt
gree
pas
pushing
rotten
wis
yess
##egr
##pa
##cing
##col
##cile
##inist
##esp
##etta
##ays
##oos
soap
##hern
sheets
##icing
##icop
concept
trash
clients
##eman
intent
helicop
##bley
##cience
moron
mornin
resign
stress
boats
schm
wars
related
highway
promotion
##ugs
burgl
testify
radiation
walt
palm
costs
investment
prisoner
negro
computers
mikey
colored
limit
delivered
lampert
leonard
fleet
sports
austin
shields
epis
harvard
surgery
##known
envir
unbelievable
gittes
00
500
bend
hitch
jazz
nan
rac
sire
##lines
##hold
##car
##craft
##bie
##itory
weir
beverly
##imum
atm
defe
frame
alvy
##osal
unknown
wrest
musta
poker
diet
prem
##ggin
invented
evan
simon
conscience
geor
incre
retired
patri
salad
fallen
profile
marylin
kissed
paulie
teaching
steps
response
meantime
treating
irish
impressive
continued
connected
pretending
fantasy
statue
goddammit
analy
fabulous
occurred
counselor
vehicle
sacred
jewelry
iraq
storage
paranoid
aug
cant
gill
hump
kram
lomb
om
ripped
##rit
inse
weal
forbid
##iments
yourselves
##str
chill
chose
prose
alph
##osa
spark
##ously
scale
##aging
askin
firing
##action
waitress
poll
assa
actual
##quar
moments
warp
edie
grail
hearts
factory
students
advise
adventure
media
frequ
offering
dennis
teddy
specific
juliet
pigs
organization
lamb
weakness
stanley
symb
nightmares
remains
executive
principal
poetry
carpenter
environ
kramer
22
bing
batt
gorge
ian
kelly
luther
nu
oct
raz
sinc
tone
vig
wally
wives
wyn
##ua
##yard
##esy
##ota
##itar
ing
##aya
reve
rebe
hallow
##ading
##irm
managed
##osph
guide
spit
cared
pean
units
cocks
sweep
flu
fletch
owned
warren
div
payment
counts
conspir
concert
##aws
tyler
maxine
victory
june
affairs
suitcase
properly
discussion
songs
granted
agreement
effects
whisper
wounded
concentrate
powder
merely
cancel
sieu
gabri
preacher
hudson
lombard
ace
cem
fog
kong
ny
rust
vin
##dra
##lock
##miss
##oves
wears
##leans
stream
##sem
##ppy
alfred
orleans
timing
sector
##osen
exists
tran
coach
waitin
elvis
coupl
parole
tons
contest
sons
invis
harbor
jackson
pale
opens
christian
charged
signature
bitter
answered
messed
legit
greet
subs
mistaken
lessons
lands
imagination
kissing
dana
convention
196
opposite
##ographer
balance
italy
mysterious
bugs
salesman
depressed
vulcan
shelter
freezing
spanish
gorgeous
16
dee
hou
hut
lula
mosc
nancy
option
si
tut
tune
una
von
##uated
##eu
##xual
##ari
##omy
##omic
belly
dock
shout
lion
chosen
prints
sup
##eller
##pps
manners
werew
lew
quality
drill
blows
bluff
intim
bund
helm
grun
feelin
pole
stays
films
worthless
raw
transmission
catching
entrance
owes
squeeze
##unders
jersey
sticks
valent
teleg
solve
strip
convent
digging
evelyn
earn
prayer
appearance
pushed
quarters
construction
potential
##guard
technology
designed
communications
vampire
disappointed
strangers
##standing
religious
twisted
education
widow
lunatic
procedure
crisis
cripp
comprom
environment
dut
dates
eg
kling
mult
poo
rang
ross
rings
rape
tact
##uits
##rase
##don
##mur
##away
##wr
##wright
##gs
##vo
##erick
##onn
##ora
wha
##itlin
##omfort
##ashing
hammer
##idate
shaking
knox
noon
choices
##oster
##oln
##umont
##aph
coordin
imper
couch
permit
handled
owner
glor
breed
beaumont
shuttle
caitlin
fighter
wishes
synd
collar
salary
papa
dickson
council
judy
treatment
jumping
ninotch
tastes
homes
modern
threatened
drawing
hostile
balt
mmmm
flew
crawling
crawford
krist
cuba
chapter
encou
culture
slaughter
liberty
current
dewey
achie
anxious
rifle
anthony
marvelous
moscow
23
bachel
cind
dna
dyn
kansas
linc
nam
pip
pony
pipe
riot
sides
wander
yu
##po
##era
toler
##llie
item
##ete
##itect
reception
hah
dool
shh
##uries
veget
saunders
uses
guilt
arc
##ables
crane
leak
thrust
friendship
##izes
hears
paras
##acity
schw
finest
sits
similar
discip
messages
sentiment
winner
studying
buildings
locker
merry
erin
conditions
hoped
enjoying
torped
roman
tempt
suggestion
##uggie
blocks
yelling
martini
slee
receive
architect
random
internal
gallagh
scientists
bunny
##lusive
vietnam
aggress
patrol
prosecut
assault
wynant
reveal
invisible
ninotchka
lincoln
gallagher
aids
auggie
cunt
furn
fond
fits
kip
nav
nerves
site
vic
viv
wad
wra
wip
##uary
##nat
##zel
##aud
youth
tod
##itors
##idal
##idents
isol
shaw
knee
##adel
outl
therefore
chim
suite
summ
##raction
saav
safer
plot
sequ
##osis
exha
arnold
##abl
didnt
enorm
##beat
quote
scam
helpful
swed
listened
disaster
slut
controll
dial
appeal
farmer
##anca
relie
##ibly
india
brace
pulls
snoop
eleph
ess
##iety
draft
memor
destruction
##onym
exception
fairy
purse
laughs
##gedy
trucks
selfish
threatening
creasy
rubber
spirits
mcmur
attracted
introduced
unfortunate
kidnapped
betrayed
options
pierce
barton
cherry
loretta
prevent
lobby
genesis
helicopter
halloween
cemet
saavik
exhaust
mcmurphy
dill
dict
dug
epps
hint
hyster
lon
mun
malk
ooh
pup
yuh
##eus
##lot
##win
##cast
##gins
##bal
##bag
##bird
##llo
##oring
##oman
meas
shy
##urd
##rial
##icip
##ello
deer
orch
select
spider
engin
peggy
grat
afterwards
crank
##aches
runnin
morgan
morgue
recru
preys
##ggie
april
##ivers
institution
sammy
uncomfort
merle
dressing
operate
marrying
publicity
198
maintain
violent
kenny
potato
##burger
dumped
mexican
issues
technical
crawl
customer
urgent
dragon
combination
suspic
hawk
josie
expression
punish
magnific
sealed
nazi
version
chrissake
abandoned
sacrifice
fascinating
task
neutral
crystal
structure
august
bachelor
malkovich
engines
uncomfortable
ack
bog
ditch
jur
kal
lt
lane
oath
pile
ras
vot
yan
##uf
##uine
##uous
##iven
##mail
##ken
##cr
##gment
##gues
##otta
##asant
goose
shu
shith
##cho
##ament
##ucky
manh
maniac
plat
plates
##ulated
compens
spray
fucks
lean
dram
scout
##thia
gram
removed
belief
##assy
adop
acted
players
headquar
##dya
appropriate
daily
deals
gene
genuine
conscious
coron
bene
deton
instr
annoy
visiting
operations
repair
superior
chicks
entering
convict
practical
torn
vanessa
tracks
photos
limits
hooker
hostage
ambul
daniels
disturbed
expenses
assigned
bernstein
latest
catholic
panther
stephen
corporate
deaf
dipl
challenge
kiddin
cynthia
favour
reservation
kurtz
warrior
academy
cocktail
buddies
tiger
##osphere
dynam
doolittle
preysing
headquarters
35
ay
dame
kings
kyle
lance
mand
pike
rico
tis
##rand
##ront
##foot
##ias
##oan
##zed
##kind
##ja
##bble
anch
anesth
inject
##vell
shitty
butch
seattle
##uled
backwards
bran
troops
fuckers
unique
integr
role
waves
waiter
##ueger
swore
interrupt
string
cheat
cheating
cleared
foley
eats
highest
charm
possess
behave
passage
speaks
starving
worthy
horiz
##ysis
transl
impulse
merc
merrick
purple
floating
##lina
basis
prisoners
##grim
motion
communist
accounts
earned
threaten
survived
custody
audition
batman
malcol
chairman
identify
krueger
rowan
cooperate
developed
citizens
results
benefit
ouch
troubles
confidential
molec
clinic
cemetery
malcolm
garr
hip
rats
sig
tat
tale
wicked
##ii
##iance
##now
##wire
##pting
##pson
##com
##vant
##born
##inity
whip
##arter
##itled
wee
weigh
fork
liver
##aded
##urice
neur
socks
sheet
worries
##ilton
##ained
exhib
##olved
##enda
##endid
brut
maya
drank
##ishop
joanna
smarter
greater
acid
##shot
momma
##pense
##phia
compass
tripp
driven
givin
meters
blackmail
election
paine
studied
offices
fools
##cover
casual
casabl
ordell
boxes
silent
philadel
extraord
territory
skinny
thompson
arrive
laser
generous
victoria
combat
complaining
monsters
arrangements
celebrate
persu
diamonds
photographs
coupla
werewolf
casablanca
philadelphia
ape
cattle
econ
fisher
gy
gag
hose
hunch
jere
kh
nom
nich
pige
##lon
##lict
##sch
##ko
##bow
##bac
toe
tore
anonym
##arn
begging
reject
goof
forms
lily
wasted
withdra
soda
##rix
pra
##opp
worship
debor
frag
exped
comment
##obe
clerk
lebows
mock
mulder
##berry
marquis
scully
bela
joan
smugg
laz
##pton
display
##shire
ending
gib
humans
deliber
corle
steam
straw
budget
muscle
hairy
annivers
classes
classic
reflect
entitled
reported
suns
raymond
packing
connell
hopeless
normally
##cription
detectives
busting
violet
folk
begun
production
russians
accepted
pilgrim
intellect
receip
necessarily
incredibly
venice
wilson
yeh
seventh
reverse
religion
lecter
micr
determined
strictly
alcohol
satellite
laundry
episode
conspiracy
telegram
extraordinary
deborah
lebowski
anniversary
kend
moss
narrow
penc
rode
ske
vo
vent
ware
wins
wrap
yach
##rad
##rating
##lers
##pes
##cles
thea
##ania
##orters
whales
##ombley
##imore
stir
stalk
stunt
neo
##eau
##stick
chek
upper
prime
suc
frust
frida
orph
plug
coma
twombley
carr
amate
envel
happily
bloom
intended
joel
swamp
adele
flip
guessed
parr
worlds
tragedy
division
apply
invent
invitation
capacity
surve
teresa
relative
skill
gravity
syn
incon
administ
dropping
grey
maggie
proposition
unconscious
landing
explained
wallace
covers
sticking
creative
deeper
turk
doubts
produce
traveling
sailing
obsessed
searching
civilization
status
randy
mccoy
gamble
engineering
logical
scientist
scientific
activity
bernie
fashioned
critic
sheldrake
philosophy
consequences
yessir
lewis
baltimore
enormous
magnificent
corleone
chekov
envelope
ax
ari
dread
gor
ginger
hind
mim
mount
nas
nuth
pud
sic
##rup
##ffe
##low
##sion
##hi
##put
##got
##gir
##gic
whores
##otions
##itate
inher
inner
hem
weed
hav
havin
##alf
##alie
donald
donnie
myth
cany
##tery
assem
##ican
##essler
##iled
seats
guin
comic
carol
carbon
leopard
envy
needn
workers
unre
##berg
marie
beloved
gran
groc
crown
faced
handy
handling
playin
phones
strate
businessman
personnel
polish
drives
restra
decor
highness
fights
sends
burke
##attan
distress
distract
landed
informed
superst
creator
##ificant
brick
norma
feds
tort
##oids
circle
clubs
splendid
requires
cooking
angels
ruby
feeding
decisions
melanie
criminals
sharks
raped
jacob
bait
extreme
unfair
entertainment
confirm
confirmed
phillip
ribbon
rehears
cobb
scheme
atmosphere
peanut
garrison
bent
cass
dway
ferg
jed
kring
luthor
mol
oz
pals
ss
sust
tin
##ds
##iator
##mony
##pear
##gage
##xim
whit
##ester
##aroo
##isy
##othing
beans
shap
sheep
##imm
##imeter
##iro
##illance
##ookie
sphere
##itts
brush
maranz
scal
scum
scumb
writ
root
emily
crimes
smiling
##iley
lawn
fla
acce
active
actions
##ogs
understands
interfer
prost
inspir
slim
traum
beings
meetings
ahhh
sixth
shovel
edgar
forgetting
relatives
indians
franklin
closely
corp
##cca
retard
forgiven
element
collea
robin
ridd
curios
absurd
refused
radar
contrary
smaller
republ
parked
deeply
histor
closest
laying
motive
carlos
bombs
possibilities
peaceful
require
heroin
directions
wilder
electron
physically
observ
auto
july
taxes
wheels
fantas
creek
grip
sympt
generally
booze
graduate
logic
corru
corrid
thirsty
matth
blanket
trailer
vaugh
slightly
racket
whistle
ceremony
producer
deposit
pacific
temporary
shakespear
wandering
interfere
yacht
succeed
dwayne
scumbag
shakespeare
cly
dive
foul
ko
length
mi
nit
pod
pose
pimp
ripper
tips
uta
voy
vib
##rd
##rome
##ridge
##zlo
##bre
tool
whale
##eters
##iture
##itable
rey
##leaf
shed
##aly
stacy
lila
##ira
canada
##ooo
##artz
plumb
plants
##olve
##umber
##osexual
needle
shoulders
muff
emotions
##daya
parent
recent
diary
apples
##nerable
gloves
accused
relief
charity
explo
airline
murray
##encies
colors
##ials
##oleon
burst
calcul
grandpa
concl
##umbo
propose
straighten
visual
kingdom
coffin
covering
reporters
bothers
vienna
judgment
##zzle
tread
treves
laughed
kicking
juno
knocking
jewels
screwing
##box
locate
romance
##rington
violation
hooked
physics
specim
clarice
ideal
scares
laszlo
shocked
effective
description
##leton
concerns
stinks
primary
primitive
napoleon
negotiate
transferred
dentist
##elein
prospect
morpheus
engagement
independent
razor
gabriel
valentine
ambulance
surveillance
canyon
kringelein
curiosity
matthew
utah
biz
bio
bike
cried
dow
dur
egy
fuss
gym
hush
ike
jay
kl
lame
lugg
rans
tang
wipe
##dale
##iar
##nic
##mouth
##hole
##wald
##bell
##ís
towards
tobac
##aron
##arian
##reh
##reet
whatcha
##usions
dolor
sting
myers
nost
sov
abuse
chet
sum
alt
alike
##arte
lovers
##igan
sel
seb
seym
unex
mug
undercover
mini
hiya
dismiss
##anks
##quet
mothers
##mann
interrog
slap
boone
##acon
cheated
commod
davis
compound
skirt
possessed
simpl
passes
differently
bits
answering
retrie
sorts
sorta
fellows
strain
artagn
drawn
subway
safely
tested
leaders
locks
operator
##zech
privacy
absolute
penet
documents
ladder
halluc
rolling
circus
westley
apology
investigator
bandit
recognized
cameras
hostages
grabbed
harmless
identity
##anoff
gambling
magazines
improve
facility
injured
ronnie
temperature
puppet
assuming
montana
remarkable
certific
alternative
convenient
paradise
privilege
houston
coordinates
furniture
diplom
maranzano
egypt
tobacco
dolores
seymour
artagnan
cities
czech
dere
eag
hans
jody
mong
maker
od
pope
puke
rop
sway
tum
vom
wounds
##do
##hand
##ked
##wy
##wa
##pons
##power
##ít
##orable
##itated
inna
heel
rein
reun
reass
hamm
haunt
shred
livin
neph
sof
outs
outer
##inky
chess
##elli
##acks
##ested
goods
plague
##astian
backs
twins
bron
mayo
clothing
leather
leland
enforce
molly
que
##agers
##the
underne
jock
maf
mah
##uder
##udge
swann
boyd
perp
uhh
flood
missiles
##ansky
tracy
##ughters
contrib
fold
dealt
compared
reads
##what
picks
exclusive
halfway
ski
behalf
questioning
##ivity
milo
burger
curtain
##hhhh
raising
musical
advanced
bitches
impact
landl
ruiz
sunny
penis
pengu
trevor
costume
quietly
strikes
rocky
involve
##balls
197
circuit
discussed
sucked
heroes
cookie
surviv
gifts
##burgh
contracts
sweater
matches
assistance
##belik
santos
shhhh
rumor
brandon
engineer
communication
arrangement
steward
mallory
dishes
associate
carpet
terrorists
competition
slightest
predict
friedman
explosion
##nolds
kubelik
retirement
waters
breasts
sabot
wisdom
symbol
sincere
schwartz
manhattan
dramatic
beneath
deliberately
fergus
clyde
reynolds
sebastian
underneath
bam
bapt
dix
dyle
fid
fame
fiction
faint
gaz
mush
rm
rita
sins
sittin
wired
wagon
##uana
##fly
##eous
##hill
##coming
##ban
##eria
##orse
##order
ank
##aser
ink
##rels
heav
reggie
measure
##keys
shine
shave
##char
##illac
canad
##ryl
##unction
ohio
seed
exagger
##ifying
comedy
##abelle
spagh
meanwhile
brady
tram
lemon
callin
daylight
remote
puttin
crus
pointing
##atched
perf
perm
monica
lazy
actors
##cia
tomb
owners
insp
sloan
schol
glen
brew
##phis
walker
previous
desmond
deserved
harass
tennis
presents
excit
promises
causes
obst
genetic
defensive
painted
region
arrow
memphis
raoul
proposed
transmit
officially
martha
buckaroo
nickel
marked
protected
purch
servant
honored
chickens
larger
iris
entered
illusion
borg
severe
crossing
risks
##boat
carla
woody
homosexual
sucking
survival
jammed
francs
melt
keaton
civilian
niggers
grief
chaos
lifted
nailed
rumors
bonds
commissioner
matrix
naive
cosm
josephine
patterns
##ijuana
nuns
liquid
priority
cadillac
battery
utter
demonst
literally
ultimate
ignorant
nurses
narciss
tube
gesture
tattoo
struggle
attached
surrounded
mantan
bingo
kristen
aggressive
vivian
horizon
withdraw
bishop
cord
dyl
eug
fu
fans
ganz
ivy
lid
lest
lamp
lime
mast
pg
pend
ral
rage
rio
rounds
sut
session
tire
tina
wires
##rust
##diction
##iere
##lah
##lante
##not
##mark
##mont
##mates
##cie
##gate
##vest
##bes
##burn
theories
##atics
##anes
##aney
tops
goal
##cktor
##aline
donny
stark
##chant
nell
sod
sock
outrage
##opath
suz
seein
##rah
ali
sauce
manif
manual
manuf
selina
expense
backup
conqu
bru
lecktor
happier
killin
marvin
margar
scram
undress
writes
oldest
hollow
##ogue
disks
##attered
nicely
resour
parlor
slam
cheers
meets
appet
daughters
chron
barrack
shove
presume
childhood
eastern
airpl
infant
consult
buys
sniff
streak
bodyguard
##ieth
drops
beaten
filed
owen
psychology
psychological
operating
attacks
shortly
treaty
damaged
hopes
returns
practicing
democr
193
romul
programmed
suggesting
williamson
equal
praying
autograph
fingerprints
exposed
technically
excellency
creeps
nigga
galvin
customs
include
claims
broadcast
laplante
tanks
cabinet
analysis
concentration
types
thorwald
beckett
knights
assumed
spoiled
dudley
basketball
industry
volunte
insect
cocksucker
multip
acknow
juris
jedi
nephew
mafia
spaghetti
dylan
manufact
28
bunk
dap
dante
fats
gin
hong
jelly
kitty
nag
py
pitts
rit
sane
tuck
vicious
woo
yer
yon
ze
##uard
##kward
##inated
##atically
toes
##armed
##iser
##utions
##iding
##kel
stable
##anta
##eeee
asian
##store
chan
choir
deed
alas
##ulting
##ola
##olis
spotted
brun
amen
needing
intense
helpless
sworn
acts
phrase
stubb
serving
##shine
##pret
craft
provid
slide
roommate
prett
daw
##hne
watches
walkin
dealers
deserves
tense
drift
sleepy
excuses
relations
copies
skills
cafe
causing
sets
awkward
explor
##encer
##encing
colony
consum
stepped
madison
institute
calvin
annette
samuel
fooled
sells
explains
squid
addict
fairly
hotels
##ernon
palmer
blowing
penn
published
treas
illness
formal
opposed
embassy
connections
contacts
prayers
heavens
creed
suspected
obsession
levels
##chester
climbing
scottie
authorities
settlement
bonus
hawai
mutual
borrowed
typical
latin
whaddya
drowning
sophie
porch
puppy
pentagon
faggot
sandwiches
initi
delighted
breeze
dodge
announce
lungs
anonymous
nuthin
perfume
excitement
jurisdiction
daphne
400
75
80
fink
fettes
gino
hilly
ich
jeep
mouse
ole
sis
sout
tack
tide
vouch
vernon
##face
##sed
##pers
##corn
##gler
##bler
thie
##inate
##anor
toys
##enstein
inh
hector
weep
bean
rear
reilly
hald
stool
stations
stores
##see
##chair
##ighty
##aman
##urate
##ctions
abd
aspir
##rich
##stock
chips
##icient
##elled
##andal
fraud
##raged
##ainted
##osure
gull
guitar
##endous
##abet
spice
spons
##ums
tramp
oklah
ens
overnight
quad
##ewell
gren
grows
wax
fires
crum
swan
minimum
##izer
adorable
fax
guessing
resent
craz
proved
insight
bold
boil
travell
readings
capture
farewell
barrel
metaph
evac
passenger
hunter
delicious
bench
madman
snuff
starship
painful
greedy
distinct
imply
owl
error
imagined
popcorn
addition
centuries
fixing
maxie
roseb
kicks
solar
brig
ringing
rising
199
fatal
temple
souls
cellar
limo
argon
##etched
suffered
terrance
therm
##ography
organized
feather
stanwy
darn
##itzer
planted
hamburger
nails
sources
communicate
mortal
vulnerable
facing
cathy
thorough
vault
drowned
cowboys
dummy
clouds
nazis
insulted
despite
batteries
favors
accomplish
kathryn
experienced
##keeper
##ulsive
captured
forbidden
divine
supre
klingon
rangers
syndrome
achieve
cindy
arcade
sentimental
##natural
exhausted
shithead
anchor
branch
expedition
kendall
pencil
warehouse
vomit
eugene
ralph
ritual
hillyer
oklahoma
300
48
ara
aaa
dal
ein
fare
iv
jord
kra
nuke
niece
oth
pension
sou
sank
tib
tender
yield
zack
##rett
##farl
##ded
##yer
##kman
##point
thread
##erie
##inations
tools
##llor
##eness
##edge
ingen
##cker
shan
##amas
soil
allerg
chairs
##icidal
worf
##unning
orson
orbit
##istics
##olves
##obot
##umes
offended
carn
overwh
unst
queer
blaming
hull
underest
roast
maurice
cramp
poly
probation
smack
smear
smash
theirs
remembering
stayin
mora
parade
travis
##pected
breach
damnit
resting
eduard
towns
award
eighth
benny
follows
almighty
winds
dragged
bobo
raid
annabelle
fooling
surprises
addison
psychotic
float
bosses
smelled
irre
irres
affirm
birdie
demons
194
discussing
belonged
macfarl
programs
label
investigating
examine
constitution
expand
wheeler
taransky
mmmmm
dancer
cockro
scaring
galax
immediate
titan
marshal
oliver
hamp
requested
venkman
crowded
austral
chopped
encoun
unlock
savings
stabbed
accomp
lawsuit
various
jacques
tables
holland
hobby
automatic
dimension
patchett
thumbs
bourne
morphine
rudy
hockey
intentions
schmuck
wealth
compromise
navig
dynamite
nichol
sunset
orphan
symptoms
corridor
vaughan
luggage
ransom
unexpected
eagle
enforcement
perpet
overwhel
affirmative
macfarlane
bian
ced
cough
dork
ere
eld
fulf
gates
hast
hound
jag
jaw
kor
lin
lud
rice
rash
rational
tee
ties
vod
##uctor
##rors
##elf
##lan
##zona
##tw
##pot
##pack
##cour
##cott
##inal
##onia
toxic
##ington
whoo
##vember
##utt
bears
goss
shack
##cel
november
##amus
butcher
nev
prote
sull
howdy
maneu
##osaur
##umph
bren
carri
amber
amusing
ammo
enl
enquir
overr
pecul
unw
unem
unable
coin
cocon
##issy
hug
waits
probe
kindness
ministry
smashed
flush
disag
proves
slick
chef
content
contra
##rove
johns
##iana
accent
caps
drivin
schools
mete
pointed
christine
countries
questioned
explore
bites
conflict
corps
depth
collins
##okes
##ippi
ridge
winston
petty
arrog
studies
proposal
samples
refri
entry
martins
losers
micheal
nearest
valiant
rocket
norville
##cript
##ova
armor
rolled
frederick
tracking
castor
philip
modest
cecile
sanct
photographer
electro
autop
pilots
innoc
bearing
frightening
preca
boost
released
immig
immort
austrian
bailey
medication
buffy
##check
depressing
separated
powell
kidnapping
rhy
commitment
dignity
panties
corporation
porters
benefits
replaced
stevens
fiend
flattered
lipstick
dizzy
disturbance
constantly
atlantic
companies
mckenna
greek
rebecca
legitimate
wrapped
wiped
chimera
relieved
elephant
brutal
gibson
arizona
pudding
voyage
soviet
rosebud
tibet
moraes
vodka
gossip
peculiar
bou
cin
cuff
hence
iren
kel
lod
lug
lys
linger
lux
nash
peep
vague
vader
wick
wag
waking
##fire
##lie
##mund
##oen
##aire
##gia
##eries
##onna
##onies
##etically
##oty
##itan
##asis
indy
inquir
##uted
beard
habits
stare
stair
lilly
##verted
abortion
worn
worms
##estra
wells
##gel
manip
ohhh
##ober
##akers
spar
spank
twent
brass
amuse
ambr
claws
overl
intact
maria
coco
scoop
##agen
##uded
emm
emma
believing
cruc
croc
leavin
##asses
swana
elena
advert
flame
disgu
##eyer
##ocks
slice
hardware
finance
triumph
##ancing
eatin
breakdown
sketch
gracious
awright
beds
signor
murphy
sylv
lightning
confront
bravo
##aza
importance
depart
elements
messy
admitted
define
dragging
filth
haircut
natalie
reform
visa
freaked
gently
superher
##zzo
burnt
attacking
connie
denver
denied
lowell
pissing
fortress
violin
fields
suggested
girlfriends
drawer
suspects
approve
broom
faithful
fingerna
expose
towel
danced
tearing
purposes
switched
discovery
satisfy
satisfaction
employee
corresp
domino
chopper
miracles
cubans
punished
##backs
nicer
stewart
disappointment
chemistry
album
stephanie
hoover
seduce
electrical
bounce
picard
regarding
resistance
fiance
stamps
chrissakes
abandon
registered
altered
rothstein
nanobot
alpha
##osaurs
##onnect
hysterical
integrity
compassion
amateur
inconven
reunion
survivors
canadian
stanwyk
jordan
hampshire
unemploy
refriger
correspond
27
90
99
bisc
cort
ding
dell
dub
eager
ga
gast
jar
ling
mookie
oo
posed
pork
pms
ranger
rene
ssh
ts
vow
wich
##uj
##uations
##ras
##fish
##oons
##zil
##zak
##pin
##atown
##anity
todd
##orate
##eton
##etor
##ito
inches
hee
meek
##lection
goat
shuff
##alt
liable
##ctic
allison
##oded
##inkle
##rik
##stood
uptown
anyways
##essions
alab
alib
##ilated
sax
guild
ark
letty
offers
mayfield
ages
enzo
overd
quaid
maroon
helms
grou
groom
crop
crunch
swine
coup
uhura
household
strings
tragic
diagn
aha
persons
attic
accurate
payroll
compreh
harris
harvey
harrington
cuts
barney
childs
reliable
frankenstein
shootin
fireman
incomp
retreat
dinosaurs
feller
robber
cured
horny
advis
testing
classified
catches
medal
bucket
ruining
merger
ernie
population
flynn
teachers
##visions
sunshine
conductor
roads
bribe
destroying
silk
islands
castro
cookies
contacted
equipped
elected
hyd
specif
examined
tricked
julian
smokes
smoked
wheelchair
crashed
farmers
graduated
laurie
purely
celebration
mentally
nicole
chains
disgrace
fabric
##ylum
pirates
psychiatric
clayton
becker
oooh
debate
mummy
picnic
qualified
rehab
gregory
virtue
methods
adults
eternity
permanent
permanently
spectac
tremendous
torpedo
controlled
##birds
suspicion
goofy
appetite
airplane
channing
dawson
hawaii
southern
haldeman
fulfill
31
bin
bate
bryn
cater
codes
dot
dart
dash
echo
gek
garl
hats
jas
kast
keen
lant
lined
mace
pond
porter
rend
rating
tel
tah
venture
##uu
##uy
##uk
##uv
##rus
##rest
##roth
##fight
##fall
##fman
##iency
##ngler
##meyer
##zing
##woman
##jo
##jud
##bone
##ängler
thunder
##oust
##utter
anderson
heels
welf
beware
whatso
dol
doom
##alo
##immer
donut
donna
stoned
stella
##uster
##amins
##antine
##urre
justin
abort
##inks
asylum
##ria
choke
chased
##icates
##estic
welles
##rain
placed
##isticated
sept
##osi
spite
spencer
convert
mollie
quitting
##ember
##emann
blessed
mueller
marion
scent
scrap
gru
elimin
minnes
perimeter
flirt
##onda
interpret
parano
watchin
readers
tribe
cape
stuffed
eyed
standards
decides
copper
evolution
##ibilities
wished
indul
chancellor
lighten
columb
##negan
deposition
freeway
expectations
dining
touches
murderers
##apping
ballet
straightened
impat
dicks
humanity
respectable
jefferson
paperwork
negl
cigars
rolls
preparing
filling
cooked
furtw
arguing
anticip
grounded
sufficient
depending
blocked
judgement
approxim
cameron
audrey
organic
buzzing
sarge
massive
leslie
performed
internet
employees
kirsty
poisoned
pumping
celebrity
mortgage
referring
stabil
printed
activities
uniforms
jonah
erica
##ooter
briefcase
tenth
chewie
ronald
defendant
pillow
lecture
deceased
hollis
explosives
gabe
certified
bourbon
dudes
kilom
whacked
instincts
misunderstood
duffy
wigand
northern
charts
cheek
vicki
defeat
iraqis
vinci
greetings
grunemann
bracelet
gratitude
yankee
rehearsal
fantasies
koessler
derek
thieves
encounter
autopsy
ambrose
wichita
alabama
groups
bateman
kastle
welfare
whatsoever
minnesota
furtwängler
38
41
70
aa
ais
bai
baker
ec
ego
effic
erik
fries
hend
kob
lones
moth
nations
ost
panc
pulse
sang
sissy
tiss
veter
wack
##uum
##rise
##life
##nik
##mes
##mia
##sters
##post
##grove
##erd
##atures
##anian
##inging
whew
##utes
beers
##leine
knives
sty
##child
##ads
##anted
##illes
chi
pritch
##icorn
mankind
loom
loaf
telly
semin
guid
exter
##ifies
brok
trop
ambit
click
enid
betsy
blaz
intri
scars
##elope
huey
heller
##ureen
grounds
##nings
maude
##angle
throws
kindly
monkeys
homeless
remembers
phoned
phoen
deadly
madeleine
##print
slay
schul
divers
glow
clevel
##phin
finn
prey
pawn
metrop
sleeps
eddy
edmund
hopefully
breaker
booked
awa
confusion
confusing
brazil
##azza
disco
discou
disconnect
income
install
diner
snakes
sickness
messing
##ippe
defin
riddle
regan
peters
legally
arts
submit
profits
sample
balloon
loses
##ervo
cannon
##aldi
buster
195
##ovan
responsibilities
ninth
circles
sadd
vanished
verd
mirrors
travels
smokey
senses
rented
terrified
portra
##ophone
lamar
frighten
malf
shares
pockets
flea
weathers
freaks
identified
darryl
interviews
roses
lauren
described
spiritual
banana
represents
horsesh
rabbits
sneaking
naught
buffalo
stinking
toothp
management
mathem
dispatch
association
associates
therapist
passionate
occasionally
bounty
chinatown
kentucky
accomplished
spooky
crushed
gathering
candidate
andrews
kilos
declare
infected
conceal
cloak
cuervo
scenar
eternal
dwight
fortunate
heights
burglary
increase
october
encourage
pipes
thrusters
coroner
administration
strategy
conclusion
specimen
bizar
stewardess
sabotage
scholar
margaret
pittsburgh
supreme
meteor
overlook
gekko
lantern
neglig
pritchett
phoenix
42
800
baked
bien
cbs
fist
foss
gem
hart
kry
mt
obe
pam
pul
pub
rul
satch
tch
ugh
vag
zomb
##rr
##rine
##rence
##rimin
##fr
##nick
##hard
##ae
##piece
##cake
##card
thus
##inent
##orc
##esome
anton
##edict
##aration
##arms
##oto
##otics
reel
haz
haird
##lein
shang
##imo
stim
stens
lil
lions
##chess
nolan
nex
soze
##step
gotham
gotcha
chow
chum
atomic
frog
frost
alto
saus
manchester
user
##ulpt
##obile
spying
conk
conway
offend
offensive
bras
brody
amend
clip
lech
betting
unple
unne
##emois
drama
margie
cozy
scoo
scandal
hugh
godfather
wrist
gras
grid
groo
mau
maze
maureen
##udy
mustang
mines
listed
missile
disres
minded
fathers
serves
strung
slipp
schuy
traps
polar
compos
triple
harsh
chrom
drif
beavis
presum
decency
cavi
obtain
heartbeat
trusting
##iva
delicate
steering
discret
mademois
dinosaur
burt
burden
patron
regul
subtle
recording
magua
destruct
##tenance
mouths
psychologist
condem
supervis
maxwell
##heim
penit
irrit
growth
##iki
footage
##master
joining
accountant
continent
angelo
investigate
physician
theres
tales
existed
relationships
weekends
keith
civilized
shocking
lesb
germany
berke
ambition
forehead
cousins
lyin
scrub
kaye
suspended
experts
domin
shirts
executed
pumpkin
cuban
funds
desperately
reference
reckless
disposal
insisted
whadda
sophisticated
optim
##aaaaaaaa
december
electricity
convincing
affection
kathy
lizard
determine
procedures
ignorance
assassination
laboratory
thrilled
efforts
dyin
traditional
shells
atlanta
friggin
paso
patriot
frequency
battles
##donald
toddy
punishment
pigeons
receipt
writers
acceler
inspiration
interrogation
irrespons
cedar
fingernails
september
approximately
lonesome
schulz
cleveland
unpleasant
disrespect
schuyler
caviar
mademoiselle
34
au
aub
aaron
bore
bain
bass
bah
bacon
cate
cum
cork
cows
cept
fuse
fian
fib
fetch
fountain
foster
gw
hir
harl
horm
jor
jade
jets
mour
mild
maps
mature
nay
pace
roo
rena
soo
sip
vanc
wiz
##uge
##rod
##fol
##eger
##iors
##nia
##mith
##mine
##oven
##ski
##kers
##tight
##wall
##west
##cony
##cuff
##vard
##vous
##bro
thigh
##ouver
##atra
##lla
##etz
##itary
mead
haf
##sex
##very
##adays
##urning
butler
sox
allen
chili
upside
shep
##opher
##essive
veins
##ppie
somewhat
righteous
nowadays
##ains
##igo
##osh
exorc
##olt
coman
##abouts
theme
brenda
trous
caro
amnes
clues
enlight
makeup
##bels
overhe
pepper
une
quant
blake
intimate
marine
sculpt
##thin
roach
rogers
##active
putter
##anges
throne
flaw
acme
missus
phase
##ogen
tomato
##shop
strand
stroll
slack
##pective
ahm
attraction
compare
trips
barren
restore
childish
figger
eval
supposedly
awesome
trusts
indo
explode
##erton
hunger
blacks
discreet
movin
##enses
returning
##lands
snatch
messenger
##oking
##avitz
greed
subpo
recorded
cleaner
absence
specialty
merlin
masters
massey
poster
controls
operational
toto
penal
courtesy
respected
damone
sherry
sandro
bottles
mainfr
maintenance
digest
spacecraft
##ilians
horseman
hmmmm
continues
ceiling
visitor
limited
hookers
##ugged
sensors
rains
examination
construct
talented
exposure
balcony
cracked
sara
sharing
subjects
sweating
projects
speeches
urge
duh
originally
ethics
scotland
brandy
militia
claimed
expertise
cooperation
european
approaching
depression
cosgrove
recommended
junkie
terrorist
rarely
bartender
maiden
swinging
incidentally
shaft
recovered
counterfe
blessing
phillippe
comrades
crooked
##weight
warriors
licked
debts
springs
hustle
rusty
discipline
orchestra
panthers
molecular
dreadful
guinea
corrupt
treadstone
penguin
otho
allergic
unstable
galaxy
alibi
rendez
shangri
conklin
unnecess
penitent
irresponsible
vancouver
26
32
bic
bats
cunning
dess
dary
dmit
era
eject
gulf
ive
lend
lump
lama
loos
miz
mord
ratt
tires
ul
vows
wo
wakes
zip
zuz
##uest
##fuss
##ih
##sp
##zer
##yy
##water
##cal
##cula
##gal
##giving
##bra
##11
##erate
##erman
##inter
theor
theft
##oran
whe
##otes
revel
meals
hail
##keep
shir
shared
lill
noises
##eem
##urb
alle
outpost
asia
chast
##icians
seeking
herb
saints
logan
##isted
##oli
##olo
##olet
arse
backed
##obal
spoon
brat
trump
##aparte
clam
leia
enh
enth
betcha
unicorn
quince
marla
##issippi
longest
remo
embe
empt
cro
crumb
leap
keepin
elij
minus
assured
##fton
handcuff
mississippi
phant
pharm
disrupt
##shed
resort
residence
resume
parry
insign
traitor
hardy
turner
hurric
sixties
##onsider
finch
prejud
accuse
accoun
situations
invasion
##etto
tension
babys
drinkin
counted
figuring
promising
caval
##ivan
deaths
colomb
jeopard
factor
depri
madness
watergate
##rete
admission
touchy
concrete
drain
stupidity
curt
ordering
experiments
transpor
distant
imperson
medium
martial
protest
owed
errand
psychopath
dresses
quicker
penelope
claus
costello
musician
packs
deepest
reaching
sherman
peach
ringo
torch
fears
maine
mainland
catal
carlton
upsetting
gerald
geek
tracked
verbal
visitors
idiots
estim
estimate
limb
searched
sleaz
towler
january
buttons
motherfuckers
queens
puzzle
pageant
bonaparte
wesley
duchess
doris
rapid
grades
complaints
gallery
positively
cycl
employed
directors
mobile
injury
perspective
principle
avoiding
dumper
slaves
mattress
acquaint
penthouse
african
demands
creepy
channels
vehicles
candles
experiences
pursue
cruise
terminal
lynette
occupied
sheldon
struggling
obliged
bolt
dwar
chemicals
sympathy
negroes
wealthy
alphabet
rebels
helmet
cripple
crippled
duties
adopt
instrument
instruments
##borne
jeremy
##rupting
grocery
prostitute
corpse
haunted
landlord
narcissus
lestat
manifest
volunteered
stubborn
bianca
lugosi
lyssa
lingerie
sparazza
gruber
paranoia
impatient
aisle
tissue
guidance
broker
malfunction
naughty
bizarre
hazard
discretion
berkeley
categ
amnesia
subpoena
mainframe
rendezvous
dessert
dmitri
zuzu
enthus
elijah
hurricane
55
auction
bot
bates
barth
bij
cd
cue
dre
dated
duct
fug
hed
hana
hicks
jig
kau
mop
nud
pim
pne
ramp
ripping
ti
tucker
voc
yak
zira
zavitz
##ext
##eenth
##dor
##dog
##iary
##name
##mers
##mel
##oly
##hy
##yll
##cet
##oning
##isco
##asers
heir
webb
beeth
begged
shin
##ims
##cht
noir
candle
aster
##state
##iel
vel
##ilation
sap
sakes
loot
pla
plank
sefton
comed
##endel
backyard
spain
spine
caring
carson
mayh
amour
amanda
enchant
overs
bets
unpr
moore
killaine
intu
hass
scooter
##elius
lovey
wretched
wald
joker
imbe
##assing
realistic
perry
pervert
laval
fazel
secured
dischar
##ques
elsewhere
resurre
interior
proven
insom
slob
##acing
schiz
traced
global
accidents
invention
harr
endless
barber
restrict
easter
skipped
caut
apes
##otto
speck
grain
graff
behold
significant
lighter
infer
hunh
hunters
conserv
delmar
steed
stepping
benn
discount
eleg
colleen
##oked
burg
##apsed
pains
articles
millionaire
drapes
dracula
redi
cursed
perfection
loun
louder
##pressed
raft
dearest
hairs
proposing
classy
refuses
distrib
landon
prototy
completed
reporting
kisses
jerome
paula
sunk
sunlight
sunrise
protective
carryin
floors
spends
honorable
consideration
creating
devices
solo
conviction
tougher
##ikes
relaxed
risky
torrance
duncan
acres
digital
greenleaf
required
cecil
apologies
delivering
ants
##works
loads
amazed
obsc
observe
approval
pinch
exceed
panicked
talby
organize
vacuum
crashes
keyser
orient
shari
feature
##lights
symph
identification
hamilton
gardener
cycle
venge
tuna
reactor
cornelius
witches
dishon
typew
hypoth
shadows
products
1000
vincen
##igel
currently
containment
journalist
tossed
rexroth
harvest
critical
barnett
transportation
oui
motorcy
gregor
literature
etc
anxiety
porno
##worthy
lynn
##rogen
infection
misunderstanding
alcoholic
volunteer
bushes
establishment
bundle
gloria
glorious
slaughtered
tolerate
parasites
isolated
swedish
snoopy
adopted
persuade
##girl
republic
retrieval
dixie
utterly
aliens
undressed
resources
romulan
prettier
einstein
australia
nicholas
maneuver
enquirer
disagree
innocence
crocod
refrigerator
gaston
shuffle
loomis
krypton
hairdress
fianc
trousers
unnecessary
bijou
pneum
beethoven
fazeli
ak
ale
aqu
auth
bers
cod
dorm
epid
fade
faking
gau
hick
hiring
ils
kre
kitten
lust
oly
pom
pest
pine
peak
pizz
ratched
sessions
tapped
vest
vine
vood
vital
wl
##rent
##rants
##riter
##fus
##like
##nels
##zon
##kaya
##pol
##cest
tol
toky
##arine
##itter
inex
##utch
meg
doo
shab
shag
shining
donovan
##sell
##chez
##ooke
sole
sober
allows
alleg
##river
chalk
chump
sul
##rag
##raph
herman
everett
##ucks
loans
teller
##iffe
##ifully
spats
spots
conrad
twin
drool
blair
blamed
marx
marijuana
scope
scru
##thorn
sorrow
grendel
emil
##anging
crude
swiss
kidney
smy
smiles
adren
flop
handles
understudy
suppl
##redict
headaches
morris
##shaw
reserve
interrupting
slit
slapped
boards
harding
hardest
dieter
daisy
glimp
difficul
accus
compar
sitter
capit
pickin
restless
sounding
reliant
casey
promoted
caution
setup
policemen
passeng
signals
indicate
##ivable
humble
confuse
shooter
##erts
infl
delusion
cora
corny
discl
##ensity
retain
snitch
burial
##ippin
saloon
rides
artie
subc
muscles
advised
natives
refr
visited
lando
freaking
masks
images
marker
supernatural
judging
pressing
pressed
bastaldi
courtroom
##bridge
devoted
eyeball
reaches
chiefs
virgins
##aaa
rises
motiv
campus
campbell
wooden
teams
##teenth
tasty
healed
suckers
disappearing
cease
sanchez
threats
furious
bowler
appeared
holiness
approved
potter
juan
beaches
##ographic
politician
arrives
characters
tourist
olive
volume
gambler
complaint
wilh
employment
pregnancy
mutant
domestic
broadway
taller
execution
magnetic
##uzzy
inspection
trading
graveyard
activate
albanian
pearls
150
ferrie
jonathan
entertaining
principles
whaddaya
wendell
materials
spreading
microw
pouring
underwater
250
explosive
teenager
holidays
kiddo
cynical
katharine
whistler
clowns
linked
bertrand
sewer
humiliated
dedicated
industrial
revolutionary
muddy
##regon
unpredict
bulj
companion
tamper
unlikely
wrestling
omel
vigo
fletcher
nyah
tuttle
bundy
torpedoes
potatoes
annoying
anesthes
nasa
sicily
interference
colleagues
riddick
plumbing
muffin
dowd
certificate
sofa
alaska
sponsor
crummy
implying
cockroaches
sullivan
brenner
meeks
incompet
specifically
brynner
kilometers
portrait
scholarship
##hardt
nexus
altogether
lechter
composer
hafta
wheat
phantom
acquaintance
kaufman
imbecile
hairdresser
ilsa
olymp
tokyo
glimpse
difficulty
passengers
47
aah
bim
bont
bial
cz
cine
dried
earr
fen
fest
fert
gt
gide
iced
jude
loop
null
nigel
pens
sings
sque
vet
wan
##uild
##rill
##rum
##rari
##robe
##din
##dan
##dling
##names
##sucker
##kall
##top
##cat
##cre
##bin
##bby
thirt
##atin
##anium
whitt
anat
##ision
##isance
##etric
##itations
##itals
##asm
thatcher
revers
##idy
##idote
stitch
stead
##verick
##ammit
##ooper
##urer
##allows
neural
ally
outstanding
chunk
uptight
##oper
##opia
##icut
##icity
defect
fridge
herbert
alg
lookit
##ively
##gey
plaza
timer
##iggins
arnie
whereas
sparrow
conver
##icker
twelf
brock
tresp
cargo
careless
levi
download
happiest
unload
mold
blink
bluest
bugging
marv
marines
##elway
##thouse
happenin
##ffy
roots
gro
grill
maverick
##uding
##placed
crock
leagues
mint
minim
smashing
partial
particles
courthouse
adrian
assets
loth
lotte
monk
monstr
missou
misses
##intend
startin
phoney
phasers
runner
##eeney
housew
resem
insanity
sling
##arez
thanksgiving
##igned
reconsider
warner
contempt
clement
finer
finishing
prel
foundation
compartment
deser
senor
picket
pickup
prescription
prices
caf
fighters
compliments
beha
bullsh
##ontane
##iera
blooded
brakes
##cco
benedict
snot
eleanor
shipment
defending
grandchild
starve
starck
artists
artific
curve
gladly
musket
annual
absor
radiator
freight
nickname
squir
surprising
erase
added
pauline
##ergast
michigan
maximum
honesty
smartest
shorty
majority
basil
##bris
##brush
irs
convicted
siddown
strongly
turf
democ
closes
layer
umb
torment
mainly
communists
carlotta
located
circulation
saddle
disappearance
cellular
connecticut
directed
antidote
hyper
sensible
creation
##bbing
tricky
pinned
yelled
collecting
panel
portland
concerning
receiving
professionals
precinct
bells
massach
authorized
flee
luca
identical
performing
ambush
darrell
hatred
marshall
dupl
rosa
graduation
languages
opportunities
repeated
disturbing
domini
broads
pumps
otto
funding
guaranteed
kidnap
spells
experimental
banging
pierre
chewing
universal
attempted
occasional
paintings
mackelway
recovery
priests
qualities
oscar
membership
troubled
pursuit
declared
narcotics
delightful
horns
astron
savage
scenes
jaeger
flowing
fortunately
##ecou
athos
georgie
georgia
nuisance
whispering
dutch
pooch
outlaw
detonation
signing
jeremia
parrish
##lowe
inherit
sssh
scalp
forgiveness
wilderness
electronic
ropes
swayzak
jockey
heavily
pendergast
starks
outrageous
acknowledge
yonder
provided
travelling
underestimate
accompany
nevada
contractor
arrogant
immortal
boule
ambitious
intrigu
amendment
lesbian
sooze
wizard
carolyn
shirley
lillian
accounting
curtis
elegant
lounge
fiancé
pneumonia
voodoo
smythe
microwave
buljanoff
bontecou
bialy
twelfth
jeremiah
44
aer
bind
cot
cush
dors
dances
drey
fet
flem
gown
gina
jumbo
kore
kitt
kron
lent
lag
lass
mice
nune
oven
pus
riz
rave
races
wud
xxx
##rations
##rina
##fied
##ns
##och
##sky
##hl
##zi
##zs
##ais
##kh
##tub
##word
##cup
##bok
##anas
toon
##ingu
##orp
##enmeyer
ancest
##etics
##itious
##uties
wease
rely
##levant
##user
##usins
##iders
goeb
shorter
shipping
##ala
knots
stere
stern
stashed
##ithium
##antial
##enton
##entially
cans
sollo
abst
##eable
choo
pry
worsh
##eston
deuce
fraid
wholes
##inder
org
loath
ohh
plato
##ista
##istan
seasons
##ifact
##ifton
##olome
arson
arctic
##umann
offs
brack
brooke
trinity
##apo
aged
clap
clifton
##bean
overse
peck
quinc
##emic
blend
hash
mule
bubb
marrow
scound
scored
##elm
##thm
hugo
grusins
waving
joh
remot
##adek
lasted
swat
elo
adore
##acher
hike
flown
flames
##inton
phen
phyll
disney
##quil
headlines
sera
throughout
stray
proving
insulting
slug
slipping
appleton
functions
polo
tease
teasing
payin
paycheck
##etts
endanger
differences
beau
prescott
eyel
beautifully
hotter
bookstore
evident
evolved
millie
millenn
goddess
grav
graves
bedtime
complications
bully
password
franky
airlock
##gina
shoots
huntin
sidewalk
corb
##ensen
alma
robbers
starters
conclus
regulations
liking
curly
grease
##umbled
memo
rae
extent
extension
native
cooler
richest
statements
refuge
radical
merch
squaw
imagining
felson
repairs
teaches
earthqu
publish
publishing
publisher
servants
smelling
valid
values
casper
ordin
connor
welsh
demol
risking
feared
appreciation
bombing
elle
boarding
macle
suggestions
gardner
colorful
prayed
traveled
suffoc
recognition
obser
sheriffs
percentage
taped
theresa
grabs
civilians
cups
moonlight
buttle
melvin
sarc
issued
lasher
feast
technique
supportive
ashes
lucas
generator
tourists
rosen
requests
mailbox
lindsey
lindenmeyer
mysteries
whisky
cyber
congratulate
tunnels
corners
cornwall
lapd
roderick
referred
snapped
bernard
albania
representation
decker
ferrari
scheduled
shifts
hypocr
variety
dental
micro
rigged
rennie
despair
katrina
affected
hayes
teenagers
regardless
hudsucker
vito
wardrobe
chuckie
application
surgical
ironic
prosper
ummm
vietnames
##xxx
fascinated
bumped
misunderstand
gestapo
mamma
sinking
commercials
salvage
satellites
mechanism
hustler
gillis
gruner
##writing
imperial
vegetable
tempted
measures
suspicions
votes
exhibit
rejected
praetor
fragile
intellectual
microsc
synth
axe
mimi
sustain
retarded
colleague
bronx
skiing
crusher
demonstration
multiple
grenade
irrelevant
##course
immigration
disguise
superhero
advisor
jasper
edmunds
obey
quantum
alleged
insignificant
bennett
prototype
typewriter
wladek
wilhelm
gideon
bluestar
missouri
boulevard
bialystock
nunez
rizzo
xxxxxx
weasel
goebbels
sollozzo
quincy
grusinskaya
phyllis
conclusions
cornwallis
vietnamese
65
911
bos
bix
banged
cic
clemen
dine
eater
fier
fern
hoop
higgins
jin
ker
kinc
lain
nup
nsa
nba
ols
pate
pans
rally
rattle
samp
siber
tux
vain
vile
yog
zoe
##uating
##rous
##rane
##lane
##mun
##sis
##tiff
##weed
##wyn
##py
##pace
##pool
##gil
##vation
##jan
##bc
##bott
##bility
##bury
thorn
##inn
##ata
##atore
##oral
##orous
whiz
whipped
whites
angie
##ede
##owing
##isk
##iti
##omin
##ometer
##asia
inev
heine
heming
rebel
rekall
dose
golly
shade
forens
ster
stakes
stove
stutter
##secker
##chief
##amis
##anton
nels
allies
abbe
##storm
##icon
##icit
anythin
##ieval
##unting
frau
##ilate
##ilian
sayer
mansion
##istent
##ulator
##osl
##osse
whereabouts
##venir
backing
spa
spear
spaced
spontane
convey
tray
trim
troop
carries
mayf
mayfl
ammun
claw
lev
enri
workshop
overre
moreover
##emm
blunt
blades
bub
bubble
marlon
marcia
scores
##agan
##issions
lovebirds
thoughtful
grub
gramp
remorse
##tage
emer
mustard
##pless
hog
assed
assess
monument
uhm
lax
flipped
handful
##shell
reset
moms
slime
schumann
context
glam
glove
##roid
attending
accusing
text
payments
mornings
tens
paw
farms
##ashi
mets
preserve
easiest
edna
edition
secondary
relay
##ibles
skunk
skye
capp
apiece
graph
gravy
hearted
doorway
braces
hunsecker
consent
delusions
##neck
##neider
geoff
incap
freely
expects
retail
admired
caliber
salvy
ridin
stares
regiment
husbands
hanged
artoo
artifact
reduced
beatin
##umbling
rafe
distingu
contrad
ruins
protocol
explaining
freel
ergo
posters
positions
pasta
jerks
doucet
vibe
##cedes
##coat
accidentally
shorts
##maid
misplaced
nearby
creates
solitary
##boro
brien
boatwright
bathtub
layin
catwoman
camper
hallway
locals
gerry
vanity
violated
fredo
healing
verse
verge
heroic
disappears
models
idiotic
limp
quarantine
collected
piggy
mcg
##burgers
organism
janitor
butts
##ophy
conditioning
arriving
meaningless
precogs
belle
motherfucking
massage
masseria
embarrassment
opinions
archer
archie
statues
darned
mccord
requesting
videot
relevant
gordo
hawkins
shrimp
adams
developing
fundament
180
battlefield
plaintiff
appointed
##chev
included
cosmo
dusty
negotiating
falcon
hypnot
vari
becky
dumber
corporal
gained
cancell
joyce
cadet
implant
shaving
automatically
teenage
hacker
challeng
kimber
flattering
reservations
drums
experiencing
initials
replacement
semi
humiliating
pitiful
cheeks
mechanical
tammy
burglar
hitchh
analyst
shouting
tactical
parasite
sequence
memorial
lonnegan
geneva
tatum
pigeon
smuggling
receipts
assembly
sustained
trauma
historical
observation
##break
commodus
reinforce
ankle
inspired
purchase
sutphin
suzette
barracks
pyram
quadrant
souvenir
titanic
luxury
inquiry
twentieth
sylvia
ratings
columbia
horseshit
scenario
scooby
chromium
aubrey
##folk
penalty
counterfeit
dwarf
bartholome
shinzon
intuition
cautious
symphony
berserk
subconscious
refresh
czar
massachus
stereo
remotely
millennium
clemenza
kincaid
sampson
ammunition
bartholomew
72
85
az
berg
bik
coy
clem
dab
dile
ecc
fuzzy
gil
gaff
hare
ií
ketch
kinky
mos
moses
motto
nad
ola
pause
rus
riv
ruled
tart
tipped
ud
vast
wu
witty
wisc
wiring
##ruder
##fty
##flies
##ech
##eur
##did
##iate
##iya
##liest
##mind
##ointing
##hal
##houses
##zini
##you
##aul
##auc
##try
##psy
##core
##crack
##vere
##bat
##10
##eres
##inine
##inery
##atisf
##onic
whoop
anast
itch
##edith
##oway
##omen
##asions
##utz
beep
rept
meyer
whatt
##lew
##leg
dob
##kees
shades
fores
donít
knot
stif
stag
stored
lib
notified
nov
##illion
##stream
upd
shelf
##oped
sump
##icial
anyplace
velv
##ppers
dement
deploy
degen
##unity
fract
##rained
lookout
saves
##uckle
oranges
##osity
##ifty
##oline
willya
arist
arlyn
aramis
como
lett
##ours
spic
spies
spitz
##ousing
##bec
overboard
overload
peasant
unrel
bled
blur
wonders
mariet
coz
scattered
##issom
undert
underp
rocco
helena
grind
grissom
finder
plead
##uda
giron
keeper
swap
switzer
sweeney
cougar
mining
perse
homecoming
flare
flunk
missy
##ptic
disk
wouldnt
##quer
##quire
resident
intercept
intercourse
camel
slash
boz
boast
##orrh
tractor
##ignment
##angeli
divid
funn
gland
glue
globe
babes
##onsin
teas
compulsive
holdin
inviting
invitations
harper
barks
barker
barrett
##ancies
meter
metro
pointless
dolls
christy
prominent
lawrence
caen
caffe
obed
fightin
##aha
indict
##onto
humper
sybok
lighthouse
colson
infr
hungar
hunted
dela
firemen
deputies
deter
##ucing
snuck
snip
##ushi
burgel
##avius
admitting
sweeter
##ologists
salon
salute
windsh
##sylv
regards
regula
peterson
reduce
subt
subur
musk
extortion
propag
richie
transm
transit
midget
mistress
dickhead
medieval
specialist
rufus
meredith
squirt
clearing
pleases
kissinger
fixin
michelle
##bted
purity
##zzling
treason
macho
musicians
misd
valet
devast
irony
strick
damon
hopkins
ticking
demille
denial
mentioning
shermin
peaches
virgil
footprints
lowest
motives
192
appreciated
woodly
halloran
roller
sadly
allowing
temp
tasted
homicidal
##annon
programming
witnessed
correction
surviving
##initely
equals
pushy
blocking
pinta
reminded
ruben
panes
vacant
towels
cracker
mexicans
##paper
climbed
roughly
generation
deserted
wessex
randall
magician
ethel
combined
britain
banner
videos
severed
gallant
remaining
ripe
indiana
skywire
diseases
chops
##icycle
cartoon
nicolet
amongst
references
representative
terrorism
cathed
compete
competitive
partnership
stephens
ooooo
##club
acquainted
hobbes
commerce
despise
educated
journalism
cheerle
lacking
warden
wrecked
dewitt
pistols
championship
ultim
iii
swallowed
nursery
pounding
litter
conducted
farther
luis
convenience
watson
norton
obligation
tribune
philosophical
independence
salvation
stalling
2000
resignation
007
racing
insec
tranquil
egon
elephants
dillon
kalen
anesthetic
mercury
molecules
economy
economic
##oppy
joanne
lazar
frustrated
nasal
##girls
superstition
tortured
flavor
republican
certificates
hammond
rmph
arroway
meltdown
cosmic
masturb
sniffing
democrats
democratic
pennsylv
distinctly
thoroughly
krauts
korea
protein
coconut
lodge
fiancee
telesc
definition
stensland
sausage
grasp
groovy
supervisor
gwen
barrenger
conservative
vincennes
capitol
unpredictable
kronos
ancestors
corbett
lainey
inevitable
hemingway
mayfair
enrique
dilemm
wisconsin
anastasia
velvet
marietta
switzerland
pennsylvania
29
33
36
63
69
bicycle
cair
dand
dwell
gle
hating
kee
kur
lund
lena
llew
mit
mph
muss
moust
nite
nipp
ounce
pall
pact
rated
sought
tess
viz
vatic
wager
##rin
##rates
##rator
##fare
##front
##dn
##lay
##lace
##lift
##letic
##nuts
##most
##maker
##sing
##zie
##wick
##worm
##wash
##weg
##pone
##gus
##gio
##jamas
##bry
##bru
youd
youve
##inating
##inished
##aning
##inge
##ingly
##esus
anten
##isin
##eta
##otine
##itas
##ask
inapp
##reak
heap
ree
reph
##erella
hauser
##leigh
##idt
##idency
##lda
isab
forcing
##iman
sten
stad
static
lia
##verse
notices
nooo
noooo
##amoto
##illery
##ooping
##allel
areas
alla
chad
##opic
##icia
##ppin
##estyle
debi
debris
##raine
orgas
pliss
##igod
seas
guer
gump
##aste
lethal
##endar
backpack
spike
sperm
conor
tweak
troy
carmen
aging
clair
lease
leff
leash
calloway
##orted
overp
overtime
moe
moi
quart
##empting
intel
muh
wont
cox
coats
coha
lovejoy
rooney
grange
imitate
newt
newly
newcom
lifeboat
remar
emph
criss
leaks
poke
poach
poets
poking
elbow
hoot
hoax
##izations
shitless
courses
adolf
greatness
fled
handic
actin
##ilda
deadline
hearst
supposing
disse
disorder
mindless
crabs
traject
cheval
recoll
warmer
dair
foll
planets
attempting
menace
invade
surfer
tennes
paley
drivers
barrier
barzini
rests
restored
##peed
highland
##ibal
apoll
honour
numb
simulation
indicates
dreamt
dreamer
##elyn
cola
infirm
delta
milton
blackjack
corvis
steer
detach
madonna
##ensed
robbing
sexually
calf
calc
patty
patsy
windham
grandson
grandpar
concannon
winch
regist
regrets
raven
advent
transpl
absent
refill
reflex
distraction
banking
bankrupt
medio
fastest
merit
mercedes
masc
squat
##rams
wallpaper
erased
popped
hospitals
topic
flyer
##ocated
##ounce
hospitality
blowin
darlene
courts
commands
casan
caswell
slowing
involving
strongest
turb
michaels
jumps
denying
footstep
radioactive
drunken
neglect
pisses
formula
digit
armored
cardiac
dangerously
shops
dumbest
healy
verona
connects
failing
esther
hooks
arguments
postcard
loading
masterpiece
gasoline
sensational
crem
obsessive
addressed
necklace
ghetto
credibility
guardian
feeds
juicy
juarez
taping
##burst
smokin
cooch
terrifying
arrival
bella
mixer
reprod
martyr
italians
grie
paths
detailed
ignored
sights
lynd
duval
interviewed
banned
bananas
##ilsen
claiming
villain
immune
accessory
cartman
restaurants
butterfly
tanker
activated
representing
jessie
associated
facilities
strangest
hypn
briefly
priorities
fascist
gaining
##entials
holler
pentangeli
boundaries
reno
rags
mumford
novels
phillips
freezer
vitamin
remarks
applied
applications
philosopher
applejack
gutter
##uthers
literary
pedro
spinal
lynch
occupation
anglo
##lihood
delayed
bolsh
substance
substitute
instantly
athletic
attach
established
mckin
sympathetic
baldwin
schmidt
premature
hutton
intimidate
breeding
cinderella
wandered
sleeve
sleeper
waddaya
isolation
controlling
recruiting
platform
leaning
consciousness
favourite
mandrake
confidentiality
exhibition
whitney
shaped
flaemm
slimy
corruption
calculated
miniature
curtains
involvement
ankles
ownership
harassment
liddy
conquer
scrambled
chronic
explorer
treasury
initiative
additional
carriage
sanctuary
precaution
nashville
unemployed
##ukk
stabilize
metropolis
drifting
condemned
corky
mourning
renault
exorcism
loosen
comedian
resurrection
insomnia
vengeance
authent
gauge
comparison
incompetent
anatomy
minimal
lothar
clementine
intriguing
gravit
macleod
fierce
olsen
overreact
incapable
freelance
kimberly
massachusetts
whattaya
lettuce
caffeine
windshield
cathedral
dilemma
llewelyn
vatican
inappropriate
rephrase
isabella
plissken
lefferts
cohaagen
trajectory
recollect
tennessee
apollo
grandparents
footsteps
4th
54
78
84
bitten
ching
cel
cors
dak
damp
dott
fitting
fences
fij
gork
hin
hips
hilar
ib
ki
ka
kaf
lanes
munch
oeu
oasis
oregon
pab
pint
rim
rye
render
tes
tink
tying
tijuana
vas
vase
vista
wages
wilt
yod
yank
zammit
##uett
##rom
##rative
##ratic
##iology
##lain
##lich
##nard
##nity
##overs
##oided
##sie
##hound
##zes
##zens
##aves
##tes
##wl
##wer
##wind
##wanda
##pit
##cap
##vas
##jah
##bath
##inin
##inction
##oni
##onent
tox
torah
##orld
whining
whoops
wheres
##owa
##owed
##owitz
##aria
##isl
##etry
##etical
##omi
##omer
##asa
##asive
##asma
##recy
hep
heath
weary
reich
reek
reib
repressed
megan
whatiya
##leen
onions
##gher
docks
dozens
shee
shook
shitting
donkey
stoo
stack
stun
stump
libb
notion
##chm
##adena
myra
nood
noses
##entric
##ooey
##lyss
necks
abbott
##tered
asta
##each
chand
choc
chau
pron
##opy
##ople
atom
suicidal
##icable
##ando
vein
deanna
##racy
alf
alam
alger
manz
manray
orb
oral
lov
plaster
plumber
plasma
timmy
##igning
##ulu
##ulars
##ulating
exh
exotic
##olent
wills
willet
arb
arra
arlo
artery
##aborate
backward
conner
bred
brink
carrie
carrier
amigo
neverth
cluett
lever
##few
overth
overcome
peer
unb
unident
ungr
quint
drisco
blo
bloke
blues
gondor
peoples
bugged
bugger
mare
mario
coch
coil
scales
scouts
daytime
waal
nightclub
##uddy
empress
believer
crate
crates
cruz
leaf
elbows
elias
elaborate
couples
perception
laughter
flam
handing
handwriting
secrecy
##cian
##atha
deadbeat
suppress
disbar
morals
##proof
crabt
interv
interpol
strat
param
insert
insured
camelot
slower
##acs
yale
cheesy
diver
appe
commend
huron
glitch
babbling
##mmm
##phins
financing
preced
##ggers
accomm
tequ
reader
menu
desires
terrain
bark
barking
barbie
openly
##ails
presidents
standin
excal
decade
promote
##iba
skim
skating
cavity
billions
##otte
honors
charenton
grape
awww
##ceptive
indef
##ussion
aircraft
confessed
bloodshed
##nov
jeans
info
infilt
benes
geese
incor
inciner
truths
##upin
forged
dino
##uces
##ucci
snack
strap
strapped
##ippy
admin
calendar
patio
starboard
stargher
regrett
curfew
greer
raving
racial
raises
livingston
majors
musl
extinct
secretly
horace
profound
presidential
bitching
classroom
uncertain
refund
reflection
catcher
radius
##ructor
favorites
destination
rupt
masry
tyr
adds
informant
posse
coverage
repay
##ocity
##gann
privately
oughtta
judges
shortage
respects
bases
considerate
considerable
drugstore
slowed
##ificance
illum
striking
involves
invested
norbert
norweg
strangely
relaxing
lays
taupin
sandman
sanderson
bustin
screwy
appreh
bleek
occasions
circuits
preposter
buncha
homo
presented
macaul
##anners
continuing
cowgirls
suggests
avoided
marriages
posted
electri
hyg
correctly
##bbs
rainbow
gifted
collector
rubbing
clarify
mcgann
hostility
admirer
notebook
fingered
expelled
bathing
coop
towers
portion
portable
jenkins
malt
cocky
weaker
massac
agrees
cheaper
scottish
stockings
conversations
crawled
harmony
simpson
##ega
ashley
software
freaky
##heads
##affrey
inclined
freshman
gangs
gangster
ethical
mccaffrey
kross
virginity
rambo
repeating
swords
immense
employer
114
bayon
punched
thirst
kara
quoting
approaches
karla
encl
toothbrush
targets
lednov
tails
vulgar
malloy
lifestyle
vallens
strangle
negotiation
negotiations
unfinished
cultural
##ennial
sophia
gateway
paden
tabl
slavery
beams
canceled
caddy
hobbs
pitcher
contained
demanding
cheerful
barnhardt
##arajah
lobster
launched
links
nursing
virtually
cruiser
producing
punks
minority
terminate
##ebra
alternate
##quisite
temporarily
reconst
functioning
tribun
##walker
grassh
salvatore
cocktails
hatchet
nikki
mechanic
athlet
vickie
pasadena
gabrielle
environmental
pooh
revealed
swede
dialogue
relieve
dillinger
recruit
compensate
compensation
lancelot
weighs
khan
khrus
turkish
inherited
hemorrh
havana
unreal
succeeded
prospects
nostril
selena
diplomat
roper
shreds
maharajah
fiddle
tramell
chronicle
acknowled
pennies
announcement
override
corpses
electrocut
precautions
irene
irena
emmett
inconvenience
comprehend
tahoe
doomed
convertible
eliminate
kobay
wacko
discouraged
mathematics
slippery
bahamas
harlin
meadow
blacksmith
mordech
handcuffs
transporter
category
harrison
restricted
krem
adrenaline
##dinck
artificial
umbrell
ravell
organs
overseas
eyelash
bubber
grampa
eccentric
stifler
humperdinck
telescope
cairo
antenna
stadium
dairy
casanova
##ukkah
gravitational
dakota
fiji
hilarious
kafka
oeuv
zammito
reiben
libbets
nevertheless
ungrateful
driscoll
gondorff
disbarred
crabtree
accommod
macaulay
khruschev
mordechai
46
57
64
600
87
ai
aux
alyss
bak
bord
bib
cet
cuss
cries
cmon
dul
fitted
gad
gust
gand
gel
hath
hides
ion
jorge
katherine
lace
lure
latch
lark
muck
mates
moose
ness
nause
norr
ober
pies
pix
pins
pino
poop
ri
rut
rik
rival
siz
sushi
tep
tents
vind
vap
vous
vander
voted
wri
wop
wart
wolves
yum
zion
zimmer
##uar
##upp
##ucc
##rid
##rime
##eers
##dles
##lad
##occ
##sberg
##hen
##yers
##aac
##tles
##track
##wan
##will
##wide
##pent
##pey
##cend
##good
##gensen
##vie
##vich
##job
##brew
##buster
##oux
##eroph
##inos
##inum
thesis
##atu
##atr
##atical
toad
toont
##orvich
whips
ana
anom
ansel
##aro
##isons
##itel
##omon
##omber
##rep
android
hebrew
weaken
bees
begg
reyn
hacks
haunting
##ghead
##idian
isaac
sham
shush
shipped
shiny
##aling
forge
formed
stain
stash
noted
notions
knowin
##chen
##adio
nods
nobility
##ams
##anth
##illing
##entive
canned
nellie
nekh
abra
abilities
outr
aspect
##rip
chal
chilton
hereby
prank
sheer
sug
worley
dej
decks
herring
alarms
##inda
##geois
goody
mans
manic
lovin
plun
##istically
seamus
##ulty
exquisite
##olete
armit
##abilities
##ounding
##umper
##icking
##ickers
twink
brid
brett
tron
mayol
amar
nevermind
##apse
clitor
needy
overt
peed
peas
peking
unarmed
moh
moist
quell
aft
drugged
marcie
marcel
scuse
##agl
##agious
##issa
undo
wrists
wrench
belg
sordid
grudge
##ipher
joints
putz
##iche
crops
##asser
poe
swift
swallows
hoag
couer
particip
asset
assurance
monro
laf
hipp
hijack
flour
floyd
handbag
startled
playboy
##athon
runaway
dism
disarm
disreg
##quate
##ateral
mothersh
##eya
##shots
reserved
insides
slot
sluts
warped
warfare
contagious
sonora
##ormal
foc
##phem
##onson
attended
dealin
payoff
tril
inval
harms
endure
endorse
pappy
cutest
cuttin
barf
barbec
bringin
##ultane
wonderin
presently
shuts
shutting
excess
reluct
##aires
arena
##ibur
skins
cau
mille
mills
charms
simultane
indig
indisc
indicted
airlines
##ierra
confined
##erto
infat
console
incom
buyer
retards
lieb
snort
collapse
straps
sweetest
esp
painter
hangs
hangin
artistic
curb
filing
senseless
magruder
testified
cooling
richer
richards
annih
transition
midge
classical
uncon
visible
visits
impot
impeach
foolin
shallow
freud
masquer
squeez
coffins
paste
felony
reply
reprie
flyin
##ounced
condom
superb
superiors
##heast
disappointing
costumes
nearer
cryin
treats
##brand
largest
cables
illust
illusions
solved
solomon
junction
weirdo
denham
layton
cashed
##cribe
##lexible
carlo
camps
ellsberg
bleach
##keye
dumbass
embrace
produced
splitting
castles
macready
alexand
cowards
lotsa
hideous
postpone
angela
##fucka
princeton
gasket
sailors
suffers
sensit
dependable
quarrel
raining
observed
examining
comforting
rivers
credentials
guarded
mcint
mcdonald
hostess
politicians
dumping
views
cracking
janine
##guer
portal
##ophren
dancin
objections
keitel
precrime
chickenshit
belleroph
bodhi
febru
supporting
galbra
archd
ugarte
urban
uranium
marshm
introduction
##eteria
duane
boobs
goddamit
pocketbook
cyl
shrub
crowds
austria
moods
talley
development
celebrating
ott
punct
magnum
cartel
naomi
nicest
screening
approached
blanks
butterflies
napkins
rushed
chained
mathilda
concentrating
albany
lifting
safest
imprison
improv
improved
woodsboro
fingert
rhonda
rheya
injust
falco
competent
betrayal
denton
sophom
wolfi
instructed
deceive
liberal
oblige
predator
shelby
acquired
renew
implications
flashlight
avenge
advantages
vitamins
chambers
blasted
aiming
spooked
versus
reservoir
bourgeois
##blance
lipnik
ignoring
gathered
marching
sacrificed
crucial
crooks
assassin
assassins
hanukkah
shotguns
rotting
mamm
semester
humiliate
humiliation
northeast
##ulsion
scenery
puffy
documentary
oakland
unpack
scrape
poems
interface
wiser
defeated
wrestler
increased
iraqi
battal
fluid
divide
##locks
subscription
intimid
compromised
tactics
yuppie
temptation
prosecute
prosecutor
chimney
essence
essential
pupils
yankees
maniacs
grammy
350
strawberry
stalker
hindu
restraints
accepting
miy
klute
altitude
dismissed
simpler
improvement
permitted
inspire
transmitter
demonstrate
crazier
arab
ivan
shangh
carnival
cramps
townsend
overwhelming
elders
linen
carriers
enlar
coconuts
rhyme
spanky
emmi
inconvenient
unemployment
biscuit
garlic
garland
##fighter
dolphins
efficient
ostrich
pancakes
tropical
saddam
fossils
zombie
optimistic
hirsch
enlighten
overheard
cavalry
drex
fugitive
asteroid
mayhem
hassle
discharge
schizophren
epidemic
##thorne
tampering
cinema
earrings
festival
monstrous
prelimin
cafeteria
grandchildren
astrona
fetish
bracken
johana
merchand
cancelled
persecut
moustache
viznick
orgasm
remarried
infirmary
registration
gorkon
alamo
manzetti
unidentified
tequila
excalibur
preposterous
tribunal
kobayashi
umbrella
alyssa
##occup
toontown
reynard
nekhorvich
armitage
clitoris
monroe
mothershead
february
galbraith
97
900
bm
bry
biff
bending
cages
dag
dense
fang
fender
gals
iowa
kessler
leel
lath
lull
lens
lounds
lonel
lining
mend
mose
mma
mute
nim
nude
narr
ora
oona
oops
pi
ping
pion
pame
pta
pank
pets
poof
pomp
ponies
rou
rol
ringer
rushing
sly
sven
sigh
sarr
sss
tus
tipping
uk
vend
vald
vene
void
wool
wits
yur
yarn
zow
##uity
##fold
##dock
##iences
##lier
##nea
##nob
##ho
##hall
##hol
##horn
##kar
##wit
##pan
##pio
##cases
##von
##vol
##vale
##bies
##bitch
##15
##17
##32
thx
thri
thail
##oubted
##onal
##onzo
##anne
##llll
##orus
##orhe
##enson
anus
##eder
##owl
##arations
##arians
##isch
##eted
##itories
input
##uting
hein
heater
bem
beverage
reap
reign
reef
rewr
meurice
meyers
haired
halo
##lee
##lector
ons
##ghy
dove
doss
ist
shi
shri
shatter
##imon
##imated
knack
liza
##verty
notify
##chi
noisy
##irth
##amous
##antly
##ento
##entennial
cane
canary
getaway
theyre
sovi
outdo
##ricks
chaz
choos
upright
prague
##opper
thinker
suez
anya
frock
frames
seeks
##raved
herd
heresy
alot
whyn
##uckers
manson
managing
plag
segr
selection
##ulum
gund
##ifiable
couldnt
##olph
##olitan
willy
aroun
##astics
##obar
##obie
##obey
spitting
truce
trooper
carc
carav
hadda
amity
##ousine
agitated
clutch
leeds
needles
overrated
pegged
unim
quid
##eme
##oya
bliss
blaine
killings
##idel
intest
mund
##berries
marse
marble
marco
scroll
scobie
##eluj
##aggio
##issance
hubley
undead
undoubted
##urel
underway
roston
grimes
grove
wah
nighting
putt
##udges
mustache
##adys
crm
cran
cram
poetic
poverty
throb
lasts
swip
swings
olds
probability
elite
courier
minors
mineral
adon
adapt
realise
realizing
realizes
perk
perce
lottery
flick
flock
faw
handbook
missions
playwright
phaser
##ogy
##ogast
hearin
threepio
showers
disor
disobey
##quin
##quent
mighta
morbid
doneghy
resid
resolve
crab
strasser
proc
proxim
parach
insists
slate
slots
slugs
bogey
##aco
##acle
trains
cheats
chevy
recl
recre
recorder
warrants
contem
contamin
diving
sonuv
apprent
funky
mattered
glance
pref
payday
##ilyn
desec
harp
stuffy
barrels
gibar
presidency
unto
untouch
forgets
christs
christie
worryin
countess
fifties
##lesley
copied
bookie
evolve
skate
skies
monthly
seth
specially
awaken
questionna
induce
youngest
exploring
humility
murman
##ieri
colet
factors
consig
delaney
firefly
fireworks
reasonably
incrimin
retiring
collapsed
burying
##ippers
admissions
fulla
rider
starved
concord
concussion
painless
murdering
petals
artillery
millionaires
wearin
redhead
redneck
arranging
greene
subd
charlotte
ladyship
cleaners
magda
glades
orderly
extract
advances
testifying
transf
transform
transvest
uncut
uncomm
banker
seller
merchant
squire
ern
erotic
imagin
typing
addicted
posit
operative
marking
##oca
##oculars
stepmother
condesc
##cox
superintend
accidental
judas
##zzi
##zzie
##zzzz
baggage
rays
courtney
packages
valium
devotion
iranoff
eyeballs
##going
##govern
cabbie
##ifications
apartments
jung
jumpy
tai
doubted
catast
bombed
woodward
halleluj
roma
##iliary
preparation
vanilla
allowance
accounted
tasting
settling
belonging
vera
verify
churchill
apologizing
photon
limousine
empath
louisiana
deliveries
equality
marries
investigations
seag
sails
sailed
draws
drawers
drawings
datab
ghoul
pinot
pinched
kenn
collectors
opium
rubbed
washes
excels
mcp
juven
talia
rental
baloney
cracks
##guards
##ophob
langley
meaningful
screamed
objects
males
climate
climber
climax
devils
grif
puerto
ashore
generate
lesions
roberts
switching
darien
rosaline
hamlet
sundown
kayleigh
mcclus
shhhhhh
mailed
banished
banquet
gaming
kris
ramelle
ramona
apparent
bondage
wilfred
immunity
communicating
females
feminine
moody
poisoning
execute
emotionally
punishing
sinatra
mobil
telephoned
nicotine
chaper
buffet
scripts
witchcraft
tailor
traded
elevated
includes
125
poww
strangled
sweaty
rhode
ferry
injuries
panty
sedated
gains
rewarded
monkeybone
acquis
currency
ducks
pitching
contains
automobile
replic
beasts
tubes
tends
fruitcake
osgood
stamped
sacram
vessels
candid
responding
cereal
ministers
produces
pornography
hauling
spinning
terminated
corey
farts
luci
rebutt
sewing
rudolf
neutron
paradox
announced
obligations
hesitate
bootle
substantial
niki
spilled
fortunes
scraps
greece
burglars
georgina
octop
alfredo
helmuth
klingons
encoura
items
vegetables
prosecution
appealing
exceptional
pupil
recruited
rasc
gramm
butchered
translate
neurotic
fisherman
praise
worships
skept
frustrating
amateurs
parrot
gorman
gorilla
##ffeur
havent
unreason
distracting
superstitious
interfering
corpus
lengths
specimens
leadership
penetration
hallucinations
tumor
flooded
contribution
landlady
penguins
sincerely
baptist
mushroom
regional
sutton
conquest
bruises
resource
consultant
brunette
aspirin
boiler
evacuate
achievement
aaaah
rhythm
stairwell
advertising
departure
biscuits
saxophone
binoculars
anticipate
efficiency
veteran
seminar
hughes
destructive
comanche
stranded
bicentennial
daryll
woah
theoretically
##keeping
trumpet
deprived
rapidly
enthusi
velocity
motorcycle
crocodile
shuffleboard
##iffel
omelette
bimbo
whittlesley
marvosa
duplicate
dreyfuss
kittridge
pusher
phenomen
evidently
suffocating
hypocrite
jinx
fraulein
bergman
ketchup
divided
teasdale
propaganda
stenographer
chevalier
chauffeur
arbogast
indefinitely
auxiliary
gandhi
abraham
disregard
focused
harmsway
impotent
bellerophon
injustice
miyamoto
shanghai
drexl
preliminary
##occupied
leeloo
oracle
pamela
sarris
zowie
thailand
##orhees
soviets
segretti
caravaggio
undoubtedly
gibarian
superintendent
hallelujah
rebuttal
43
59
68
79
76
apr
bake
bery
bash
cess
cact
crick
dc
dj
dome
dice
dunk
dys
dimin
duel
dye
delly
elly
fists
fury
gat
gild
hink
hens
hints
hittin
ire
ick
jug
jup
kop
kook
kul
kool
karr
kla
klein
kiki
lur
lana
ming
mumbo
nour
nym
ply
pak
pors
rhin
roose
rites
rache
rookie
sny
sierra
tsch
tidy
vee
wuss
wimp
zu
zer
zor
zur
zach
##rater
##food
##drop
##iour
##iene
##lar
##lical
##lson
##lets
##mad
##made
##mary
##mons
##mobile
##muda
##sen
##holes
##zuel
##yman
##kis
##pay
##cers
##gots
##via
##jay
##bbe
##bach
##bank
##bula
##bugs
##xious
thugs
youll
##eri
##erous
##ati
##onimo
##lli
##llium
##ority
##enne
##enged
whim
anarch
##edo
##arming
##itis
##itutes
##omed
inning
inoper
##utical
anderton
weiss
beet
beery
beacon
rewards
mebbe
whatsa
whatnot
hap
##usive
##iddy
ish
shaken
shaman
##aled
forming
donation
sta
steep
stated
stagger
stumbled
liability
##sea
##sexual
notch
##chron
waski
noct
nobles
nooooo
##amatter
##eee
##urst
##urable
nebula
getty
##ional
alloy
allah
##rief
##heres
##sten
chig
chub
chlo
prest
prying
##oping
##andra
##ieu
degr
deception
deleg
frat
frogs
seeya
alo
alimony
alonzo
sag
saud
sauc
goodman
mann
loft
usin
seiz
##ulses
guided
exley
hiss
##olism
arter
argo
##astly
##vene
##venworth
somers
##endon
backst
##earing
spunk
sparr
everytime
##ittance
brides
trent
trophy
carib
mayonna
haddon
amused
##ouss
agony
agatha
clive
caller
enters
overfl
pem
unite
unhe
unnatural
moor
quaint
##emont
blas
muham
##berman
marl
marc
margin
marilyn
coal
coins
coca
scur
scuff
scorp
##agara
##ected
##ffle
##ishment
soran
sorority
rogue
grin
wage
waist
nightfall
##wny
helpmann
imitation
newsw
lifeform
remov
rembrand
##udd
emin
crad
crows
swicker
elm
elsa
eladio
minst
##oodle
##izers
partly
ads
##urned
peril
perverted
monitors
uhhh
lav
doesnt
flint
faerie
aces
listens
listenin
##cier
ida
##ordi
dispens
tomm
womb
morality
morrow
morlocks
seraf
parallel
slur
slag
boll
##orro
##acles
traces
travers
trapper
tonic
cheque
meetin
warne
diab
fungus
committing
daft
dahl
ahem
ahold
lively
livelihood
accessed
compact
readin
trifle
capone
##ettle
jackass
jackets
pau
pajamas
dripping
stuffing
farce
farren
farrag
barge
barric
senators
editors
diem
shutup
halfdan
gunshot
hitter
hurtin
skank
caves
billi
charter
aww
##velt
trustworthy
passive
significance
exploded
##ivate
biting
##uality
airborne
jez
infinite
hunk
hunner
consuel
##ioces
stevie
##nec
##neil
detention
geordi
waterfront
buyin
certainty
collateral
##oko
deflector
salmon
salieri
regulation
alongside
singular
##apeut
subl
bobbie
charleston
worthwhile
gladiator
studs
studios
extended
extrater
proph
frontier
richter
uncont
uncover
ballroom
ballplay
refusing
misty
locking
impulses
buckley
mercut
squash
losses
clearance
popping
poppy
tyrell
addiction
darkest
psyched
pastor
dresser
protector
michel
supermark
##oula
generals
cannons
roadbl
costa
packet
jefferies
valve
valerie
davidson
affl
birming
turd
turtle
suitable
norfolk
hopper
weirdest
birdson
boris
lords
toughest
denby
crosses
doubtful
brainerd
formality
screwball
witwer
escobar
##boards
jameson
lads
laddie
##ovak
halle
thirds
niner
silicon
rollin
sadness
geronimo
tempting
fishy
oppress
embar
casting
macdonald
macneil
module
apologized
##loaf
sanity
directing
estates
acceptable
limping
limbs
equally
equation
postal
bands
sensor
sensation
missionary
rainy
obsolete
gimm
territories
ghastly
collective
claremont
mcgr
auditions
therapeut
martinis
taxpay
##ronic
exposition
pretends
pretended
baton
cooped
dumps
balbo
objective
malign
masses
scarce
mixture
technician
breaths
fleas
matched
griff
grift
projection
stanzi
ignition
generations
flights
tours
booby
characteristics
sporting
mccall
raping
engineered
suspend
gallons
101
ratan
venza
meatloaf
villa
wilkes
jealousy
immature
skywalker
revol
hawkeye
chopping
borrowing
poisonous
assignments
miraculous
bedrooms
magnet
cartwright
chapel
plainly
unlucky
blankets
ledge
gaye
behaviour
bulletin
concentrated
thursdays
dispute
junkies
peek
rhodes
amounts
##nnn
illegally
unsolved
chewed
ooooh
ronny
attempts
deceit
wyoming
officials
puppies
debut
debrief
acquire
bounced
bouncing
pitched
affects
montoya
dipshit
hacked
froze
challenged
vitelli
recommendation
rackets
qualify
critics
##namon
ultra
flags
reviews
terminator
dyke
declaration
occupy
deposits
rebuild
semple
rifles
angles
conceive
deduct
announcing
niagara
ranks
adjustment
biological
bolts
jahn
academic
actresses
colonies
monitoring
consequence
trembling
sympathize
resigned
warsaw
episodes
racist
wrestle
premium
premiere
analyzed
pollux
nuwanda
##itarian
peanuts
deemed
sioux
egghead
imperfect
syndicate
encouraged
23rd
sleepless
plotting
dictator
selected
selectman
neutralized
platoon
genuinely
detonate
##iasm
possessions
mercen
merciful
tatiana
liverpool
casualties
##arnation
fragments
microphone
voorhees
carrot
sicilian
carolina
crowns
decorated
confirmation
cassius
traumat
electronics
vibrations
calculate
gymn
penetrate
puppeteer
diplomatic
baptized
gazzo
exaggerating
tattooed
jellyfish
crafts
tackle
weeping
abduct
gulls
grenades
feathers
rituals
dalton
accompan
navigator
cinnamon
wagner
twenties
cocoa
correspondent
lingk
ooze
##uji
arkansas
overdue
hydrogen
spectacular
hendricks
extermin
blaze
slayers
diversion
disconnected
petersburg
verdict
toothpick
negligence
fossil
hartman
ruling
fibers
jorgensen
sculpture
figgered
emptied
prejudice
catalog
sleaze
inferior
pizzas
inexper
scruples
accusations
resemblance
democracy
fleming
korean
abstract
observer
siberia
yogurt
mayflower
cappucc
artifacts
variables
hitchhik
reinforcements
mosqu
russell
udall
unrelated
underpants
funniest
infrared
misdeme
devastated
lazarus
lundega
liaison
detachment
calculations
lyndon
authentic
teschm
yoda
administer
athlete
biblical
vapor
beggars
##anthrop
dejesus
reprieve
sensitivity
archdioces
improvise
bmw
venezuel
bembry
nightingale
questionnaire
uncommon
juvenile
powwow
octopus
beryllium
gilded
ireland
kopals
karras
nymph
roosevelt
snyder
chloe
mayonnaise
haddonfield
removal
rembrandt
serafine
farragut
extraterrest
mercutio
birmingham
cappuccino
lundegaard
teschmacher
53
56
74
95
ave
apt
batch
bork
bows
baw
bode
bomber
cc
cain
cul
cens
cider
cds
dm
dang
dia
doth
ech
eiffel
fancies
flexible
gap
gurn
gav
gaw
gills
gender
geller
hh
huckle
ig
jit
kap
kint
kamp
kens
kung
ls
lh
louse
lub
lins
liner
mb
mab
mode
mesc
nib
niet
nada
oun
pm
porth
pots
rates
rapp
rican
sz
sassy
vu
vat
vert
wong
watt
wench
wishing
za
zee
zander
##upt
##fits
##dad
##dick
##iqu
##iologist
##lest
##liness
##lined
##lene
##nut
##nne
##mill
##mott
##mama
##oi
##sons
##hist
##haven
##hbert
##holl
##zai
##aver
##kay
##tic
##wig
##witty
##pea
##pass
##crow
##gam
##god
##game
##gence
##gled
##jane
##bust
##bod
##bons
##bah
##blin
youí
##erit
##inty
##innat
##inople
##aters
##onder
##anny
toll
##esis
##arin
##isure
##isms
##itating
##aska
##reed
##ayed
andr
heating
weve
beamed
beyn
reinc
rearr
reagan
mellow
##usible
##uscript
onion
onboard
dost
##ldom
gook
goals
isla
shrew
shucks
##aloo
kneel
knicks
##verb
##chon
myst
noc
##amie
##amine
##amination
##anti
##eek
##entin
canal
canvas
soy
sooth
soaked
justify
allig
abe
abn
outburst
aston
wantin
##sticks
chu
chis
chant
chink
chel
chipped
chaser
chorus
upbr
prud
shemp
sued
##icism
##iciency
##pple
##uns
##una
fret
##rav
herald
sabb
##ucking
goodies
manure
manages
manhood
manpower
manuscript
ort
pledge
timers
exits
extern
##ifix
willa
willard
comics
lettin
spat
spur
spac
spills
spades
conception
##umble
##umby
brow
brung
brumby
trend
trub
carved
carmine
maynard
agencies
clum
clips
clicks
leons
leisure
envelop
enroll
##feld
overall
overst
##tyard
unle
unner
quits
quittin
quentin
##ems
##emore
drastic
bloss
mugged
buick
marce
marlowe
marathon
cog
coon
cokes
scour
scots
scanners
##tha
dayton
hubert
rog
grunt
greta
##actory
plea
jolly
imped
siren
mae
maids
maura
believable
afterward
croup
leaking
leavenworth
thresh
##dermott
##irez
swept
elroy
hoff
smiled
shitload
partially
courtyard
advers
realm
##urnal
##ossal
assim
peru
perj
perch
perish
perkins
perfor
lotion
flares
handsh
##into
philly
##ogical
##ogged
understandable
disl
disallow
##manus
morons
housekeeper
serpent
##she
crain
prohib
paral
paraly
camels
slides
slugg
sledge
sloppy
boating
bozo
schae
schneider
traff
weekly
recy
recip
recipe
warmed
warming
diap
##plement
dale
watchman
glum
gladys
brean
cleans
sixpack
businessmen
premed
preoccupied
##ggered
fambly
tripl
tripped
harri
harlem
survey
endings
cuthbert
barrington
schoolboy
eyew
edges
checkbook
brotherhood
untie
excl
countless
countdown
decoy
breakin
booker
lawford
skiff
billing
charmed
charging
gracie
obno
luckily
eighties
simulated
simulator
bulls
signatures
indic
indication
##iviere
syna
lighting
infinity
infamous
delir
delic
delac
firearms
depinto
followin
detest
detour
geography
instructor
watermel
importantly
forgery
snooping
sorted
powered
whitey
bodyguards
##ushova
burbage
##avo
admittance
defence
riders
ridden
sentences
grandmama
conclusive
winners
regen
petition
legacy
legisl
hangover
grego
filter
driveway
builds
extend
extrad
transcript
##ddle
visions
radios
impound
destined
##tenfuss
meds
##owski
owww
squeak
clearer
typh
centers
pleasures
felicia
markers
topside
flynne
##ocate
##ocation
fixes
sung
condo
condoms
sticky
stickin
privy
##coon
##coats
superv
purg
judd
judged
##zzled
trainer
machinery
rosemary
packard
lariviere
cabins
striker
investors
juneb
blueprints
bribed
boatman
demo
closure
closets
dennings
sheraton
layout
sandra
viruses
detected
publicly
screws
commune
dunwitty
camping
armies
ella
ellis
bleeds
ninja
silo
rollo
sadie
germs
stationed
viola
violating
fishin
prodig
vermont
##inois
moderation
southwest
frenchman
fails
colorado
aviation
argent
nosey
posts
investigators
bandages
seafood
holoca
pushes
sensed
quarre
##uthorized
terrence
territor
reminding
constable
clara
clarendon
leeches
mcgovern
mcdermott
mcmanus
panama
talents
fingerprint
difficulties
renting
intruder
intruding
balanced
franco
crackers
##laim
melan
melted
lambs
frightens
feat
fees
features
emergencies
stocks
arche
archae
generosity
roberto
bermuda
successfully
pools
tita
daring
darcy
tournam
##etera
olives
rosato
furthermore
banzai
gamma
gallon
rams
rambling
wilkins
releases
snowball
corrob
mutilated
cooperating
executives
pumped
pairs
punching
mentality
sinned
oceans
ryuji
hillside
pinkerton
nutshell
butterfield
buttercup
##oxide
gayle
##ermo
shielding
funerals
disposition
antiques
negotiator
typically
spelling
jonas
whorehouse
shifted
behavioral
unsub
bangs
hooper
productive
congressional
scratched
starla
foreigners
pours
twisting
rescued
webber
chatting
chateau
cadets
container
flashes
escapes
shawn
surgeons
katka
hayworth
replacing
hacking
##izzard
picass
novelty
courageous
kimmy
ribs
recommendations
stretched
applic
accomplice
prevented
kuato
osborne
oskar
utmost
whistles
spooks
scanner
peddle
complimentary
sacrifices
tags
habitat
assassinated
##weil
clinical
networks
13th
constantinople
21st
deranged
tanner
methodology
nobleman
franch
cloaked
temporal
functional
passports
savior
savages
adjusting
ruthless
nikko
stallion
whatsamatter
##esthetic
editorial
legendary
privileged
privileges
mantini
spectrum
bidding
waltz
increasing
analyze
humpback
##strom
frequent
symbols
razinin
concerts
tonsils
greeting
tutor
unaware
unauthorized
bluffing
intimacy
multi
achieved
vegetarian
leaked
summers
sequel
memorize
dictate
hysteria
lonnie
munro
muncie
##omaniac
measly
neutralize
ditched
rasp
rasput
voters
beliefs
kurtzweil
possessive
translated
gynec
nominated
telegrams
skeleton
stalking
relatively
synchron
mythology
groceries
restraining
molest
whitman
inspiring
vibes
exploit
nostal
altar
commodity
retrieve
czechosl
odor
reassure
folded
bambi
exaggerate
obstetric
##rusted
bruise
infantry
insects
tucked
stubbins
prettiest
consumed
treasures
ensign
metaphor
evacuated
thermal
dalai
kraut
threads
underestimated
polymer
cockroach
navigation
overwhelmed
jaguar
ludwig
enlisted
arrogance
kelson
wickwire
inquiries
staircase
crucify
crucifix
superheroes
dubious
tsavo
guilder
diagnosis
spectacle
dartmouth
interpretation
styles
await
toothpaste
negligent
mtv
ruler
zombies
antonio
braslow
continental
thighs
tomatoes
daryl
ulcer
jeopardize
cyclops
enthusiasm
yakushova
##hyd
looting
oversight
sultenfuss
drooling
anesthesiology
olympic
algout
housewives
behaving
bullshitting
repeatedly
outlawed
inheritance
dorsia
wuddya
scoundrels
passwords
earthquakes
ordinarily
microscopic
bixby
tuxedo
troopers
emerald
glamour
distinguished
mcgill
videotap
pyramid
gilbert
##atisfied
dobisch
glands
obedience
stricken
ultimately
dottie
hinkel
pablo
stooge
chandler
cochrane
hygiene
reconstruct
acknowledged
kremlin
bakery
riker
zimmermann
barbecue
cauld
simultaneously
incompl
cylinder
shrubbery
ottos
fingertips
fangs
loneliness
pankot
dossier
outdoors
gunderson
marseilles
disorient
sonuvabitch
transvestite
database
sacramento
skeptical
unreasonable
cactus
hinkley
jupiter
kulok
klaatu
porsche
inoperative
saudi
caribbean
muhammad
consuelo
ballplayer
therapeutic
balboa
misdemeanor
kopalski
gurney
huckleberry
kensington
lhasa
zaius
##holland
##innati
reincarnation
upbringing
external
disallowed
schaefer
obnoxious
gregoire
junebug
holocaust
territorial
rasputin
czechoslovak
39
7th
81
aide
aches
bung
baff
cb
cone
cuc
cinc
cement
crib
ciera
das
dic
dore
dade
dubl
doming
diction
density
ether
ehh
ewe
elder
ebby
fou
fad
ful
fading
fainted
fumes
gore
gail
icy
jell
jeth
jugg
jules
ky
kam
kos
kab
komm
lan
lother
lash
lured
moo
mish
nlf
nyl
naming
og
ov
ove
okey
pd
pes
pater
pending
poodle
rin
ration
rents
rav
roul
roust
sans
tad
tant
tame
titty
tiring
uc
ust
vort
vial
vivid
vlad
wann
wanda
xk
yay
yoke
zh
zap
zimm
zebra
zorro
##ube
##rer
##rough
##rists
##driver
##ienced
##non
##mart
##mac
##mute
##oats
##ozo
##hot
##zia
##kies
##tie
##tray
##wun
##witt
##puss
##cill
##cine
##gom
##vent
##vana
##just
##jac
##ben
##bas
##bound
##bish
##bishop
thal
thug
thaw
##inet
##inals
##inform
##inburgh
##ono
##anche
toaster
token
##ingham
##llip
##eny
##enas
wham
whiff
##arna
##etrack
##asher
##real
##repr
##ayette
hex
hewitt
beads
rect
reese
rewind
hale
hagen
onna
gogh
gozer
##kell
shm
shes
shiv
shattered
##aler
fors
forum
##ima
##imited
donor
stans
stared
stages
staked
stains
lipp
lionel
knowed
##ceivable
##chn
##aders
wastin
noel
##ithm
##illo
##urai
##alled
##allister
neill
nebr
sob
soak
socc
socially
alliance
abroad
likewise
outd
aspen
##rils
##stead
ches
chir
chino
upl
uphold
upstate
pruss
##opes
suing
sula
##icies
##icides
howl
##ellar
vector
worthing
##estro
dex
depl
deja
fren
frown
framed
frantic
##rable
##rault
alison
alarmed
##arten
sau
mank
loony
##arded
plut
plum
timid
##igs
##istical
seated
sears
seize
semen
seldom
##ulet
guine
guene
export
hisself
##atement
comical
compton
##endo
comeback
##aky
##aka
spud
splin
spleen
conj
conan
conting
twen
brom
brent
brouss
trout
cary
amp
agenda
cluster
leans
legged
leverage
##felt
downs
##ortions
##beck
betel
peps
uno
unin
moors
quiz
##ements
droid
blames
blush
blender
intra
mull
##bering
marzz
marguer
##issen
hub
hullo
thanking
thankful
evenings
##ffer
rox
roeder
grouch
nightcap
##actic
pleaded
longsh
remington
mai
maestro
afterlife
crest
crud
##assed
polly
throats
keepers
probie
probable
biggie
##eph
partying
particle
adri
adding
adcox
greatly
assert
perks
pervers
perrault
monop
monaster
placement
lacer
lacr
laurel
hippie
fling
flav
flask
badges
careers
understatement
missoula
##oga
##ogan
##ogram
dislike
##qual
##quist
minding
motherhood
##mani
headin
housekeeping
##pring
reserves
craps
crazed
strut
stressed
strader
strokes
momo
wasnt
proverb
parks
slid
slips
worldwide
boca
##acc
trav
traits
traitors
hardcore
warhead
contro
diabet
sonar
##uba
##rov
##roix
financed
finnegan
businesses
premon
policies
accum
founded
readout
trials
holden
invaded
tenor
papp
cutter
barging
fewer
beaure
babylon
pickle
##ailing
giul
metall
restroom
preserved
sounder
sleepin
edwards
edinburgh
##eeth
pricks
deciding
decipher
bookkeeper
hitman
##ibu
skyn
skippy
millimeter
grable
grabbing
genre
awe
awards
numero
heartless
##ahad
simms
##ugal
indiff
##ivated
airst
syll
config
confisc
colwyn
colossal
jezzie
consist
consol
delete
delhi
milwa
depot
discred
discrimin
incar
incur
incentive
captains
##ensitive
##ups
##retta
snor
burgers
burrit
##avia
robe
robot
deform
esk
ester
esper
##ologically
sentry
touchdown
##lington
winding
grandad
starb
starvin
starring
wines
##soe
##attler
legion
singles
reds
redeem
curl
array
subm
filmm
magnes
extensive
secretaries
props
transaction
classmates
samurai
ballast
refuel
straightening
mistrial
##ruption
entrap
buckle
sellers
owens
squares
##awk
erad
losin
imaginary
centre
mouthful
foods
dougl
felon
##ocrat
##ombs
sungl
respir
walters
palermo
penance
penfield
burnfield
pressures
##lination
disappro
personalities
costing
honora
laughin
valued
deviant
lara
casket
casinos
casbah
irreg
irwin
kicker
cabot
ordeal
illinois
solving
stripe
stripped
investments
##efur
suitcases
tickle
bathe
baths
##eship
demise
denies
sherwood
sheronda
sandefur
cashier
lowry
torso
motions
191
escrow
mains
dunn
digs
##enched
cardboard
##ukee
occurs
fatig
boardwalk
sadistic
preparations
arrests
settles
mirtha
##cutt
cello
priceless
furry
amazes
##fucker
extrav
gaskell
appearances
holmes
hype
depended
corrected
blockbuster
divorces
speculate
pinback
rubbish
clarinet
royce
fitness
julius
leech
mcallister
tighter
tighten
auditor
slew
fellowship
##ographical
expend
cupboard
batting
intrusion
bala
viewer
francie
moonan
ideals
looseleaf
janiro
##guy
screamin
risked
kev
precision
malibu
cocked
cockpit
bellev
motherfuckin
sharon
feud
matching
pathological
galahad
ashtray
lucille
lesion
berth
berries
boner
##rophe
horrif
urine
statistics
randal
darwin
brightest
licensed
lifts
planting
dragons
rosie
voltage
preference
mccay
shhhhh
combinations
speeding
rapes
rapids
describing
banister
rumour
##daughter
severance
branding
represented
cyril
ramos
venom
wilbur
attorneys
logically
designated
diseased
revoir
hawks
reactions
kirby
josé
sociopath
bums
bumper
20th
maple
celebrated
lenin
corned
karma
sneaky
sneakin
mentor
quota
telephones
sexuality
unharmed
funded
chapters
hillb
stinkin
unlimited
lisbon
surfing
stability
elevators
eleventh
snappy
mathew
mathieu
dispose
impro
processing
negotiable
rhym
bravely
persist
variable
psychiatrists
entertained
mileage
royalty
##nnnn
whadaya
wintermute
experimenting
ooops
paddle
padded
confirms
lectures
scratches
foreigner
puppets
mattie
underworld
tuesdays
annex
predicted
bureauc
assumption
implied
fags
automated
chinaman
librarian
montgom
buns
haydn
grayson
freezers
exercising
kimball
tendency
revenue
blasting
brooks
##blers
cruelty
financially
dissolve
pedal
ceremon
pursued
thrilling
joshua
falsely
hauled
dyed
tassel
initial
conducting
rebell
sewers
dedication
alleys
adjusted
biology
hesitation
oaks
clifford
chamberlain
aiding
ilia
miguel
nikes
spilling
skulls
columns
bulk
bulb
##escu
steaks
monitored
nesting
vicky
beeper
profitable
cowardly
bidder
5000
premier
patrizia
humpbacks
##strong
waitresses
frequently
bingy
octavius
cocksuckers
paleont
drilling
imperative
riots
yuk
aggression
summon
scams
sweden
dugan
##balance
repaired
ayuh
injected
interrupted
translation
casualty
econom
gypsy
nomak
##oppers
smugglers
stirred
carruthers
inconceivable
criticism
hindus
mimms
guinan
strategic
cassandra
ozone
historian
scumbags
pods
exploitation
gabriela
durden
tango
nostrils
skirts
hallucination
egyptian
mongol
contribute
fidd
faintest
gaze
lemonade
brewery
purchases
suzie
romulans
manufacture
woogie
providing
initiate
750
oleg
abduction
ensure
craziest
1995
ingenious
carniv
smeared
unlocked
perpetual
rashid
##court
immigrant
cinch
kelvin
wagons
##altar
rehabil
tahiti
aaah
ecst
motha
exterior
clicking
metropolitan
concealed
stimul
presumed
hormone
rooft
rooster
evaluation
indoors
penitentiary
chastity
enhance
enhanced
babysitter
errands
555
ducts
plausible
burgund
crocodiles
akron
pestil
allegiance
kidneys
supplied
accusation
motivation
crockett
housewife
musketeer
absorb
chooses
wholesome
bubba
refugees
sarcasm
microch
forensics
spontaneous
geoffrey
challenging
souvenirs
bikini
nadia
riviera
demented
degenerate
aristocrat
hungarian
deterior
suburban
insecure
kurten
nipples
quartet
poached
handicap
transplant
bolshev
hepburn
choco
algeria
peerless
norwegian
electrocuted
ceti
hoagie
lafayette
liebkind
sophomore
battalion
bryant
lathrop
choosing
##idelity
mundt
recluse
contaminated
prefers
transfusion
kenneth
excelsior
mccluskey
grammoo
enthusiastic
henslowe
icky
zuul
zurich
beetle
nocturnal
somerset
bollocks
hunnert
traumatized
archdiocese
venezuela
extraterrestrial
bodega
mbwun
ounces
watts
beynon
shrewd
alligator
chisel
sabbath
trubshaw
clumsy
croupier
threshold
handshake
paralysis
synag
delacroix
incomplete
cincinnati
dublin
kommand
wannab
lippman
nebraska
soccer
guenevere
broussard
pepsi
marzzone
marguerite
monastery
diabetes
skynet
milwaukee
entrapment
douglas
sunglasses
auditorium
bellevue
rhymes
montgomery
5th
62
82
9th
aus
agh
ald
aint
aph
aquar
aaaaaaaaa
bac
bied
binary
baza
cp
cull
cope
cotta
dus
dared
dames
della
eu
ez
eck
eel
eich
eaves
fon
fatt
faked
fades
gents
gower
gaps
gator
hul
holog
hounds
hann
hasty
hilton
housing
jest
jaws
jello
kittle
kite
kins
kai
kamins
kettle
lum
lint
lumb
lina
lyle
luh
lomp
mh
mes
mout
moul
ner
nes
nip
nug
nero
nerd
nilsen
ore
ome
ps
pse
pont
pows
poul
rall
rue
rach
ried
sate
sized
sattler
tou
tul
tak
titt
tamp
tuts
via
vult
vox
ww
wink
wain
wider
winton
xan
yow
yllo
yanks
yvon
zipp
zulu
##uper
##rats
##rational
##far
##fell
##eon
##dream
##dup
##len
##lair
##lied
##near
##nier
##number
##mom
##mfort
##matic
##oise
##some
##hop
##hart
##zip
##zburg
##azy
##aug
##acious
##kk
##kill
##kok
##konn
##tore
##weal
##pre
##pil
##pine
##pired
##pike
##polis
##cans
##cett
##cular
##gard
##gies
##gado
##vet
##vil
##vably
##jam
##jour
##banks
thur
thai
youse
##erity
##erog
##inis
##atus
##atile
##ativity
##onents
tock
toots
##ingson
##lle
##orf
##enous
whims
##esher
##estern
ante
anto
anita
ites
##arse
##areness
##etting
##itness
inquire
inaug
##reas
##utton
##ayin
##aying
weld
weeds
bebe
mein
mement
hams
halt
online
ongoing
doole
doggie
##idi
goo
goble
goons
goering
##keby
shaked
shiva
shaky
forres
##imeters
stip
stings
stature
stipe
stained
lig
liars
liby
lili
noticing
##chs
##addle
nod
noose
##ustomed
##irable
##ami
##amm
##enteeth
withstand
##urers
##uration
##urances
buts
butth
nept
nelson
##outing
solem
allan
allie
abide
abby
outwe
outnumber
##inkled
asc
##rive
##eaux
##stop
##start
chas
chile
chey
chipp
chilly
chlor
chipper
choking
upham
upriver
prair
printing
prisons
shepher
##ryption
sully
##icrous
##icuddy
##andi
##essim
##ieg
veil
##estion
deport
frater
fritz
alias
##ilight
saver
saig
manch
manny
managers
orn
orth
orton
lobe
logged
lollip
ohhhh
uss
pled
plastics
##iger
##igation
semit
seism
sections
##osy
gumm
guides
exting
exile
##ifting
##oler
##olving
##olences
ard
arbit
arithm
armani
arlington
##astically
##abil
##obes
##obber
##nace
spree
spade
speng
converted
meanest
twit
twas
twir
twilight
offed
brod
brood
broth
brute
brimmer
trashed
talker
talkie
caret
carving
carpe
carjack
ames
ample
amado
##apy
##oused
fucken
cler
clich
clinton
leer
envious
overpower
pel
peg
pecker
unse
unqu
mooney
moaning
quill
quix
quantic
bypass
blister
intake
intensity
intoler
##bergs
buding
buggy
marm
mara
marched
coffe
scab
scatter
scagn
##agra
##through
daydream
undis
undet
##urek
underdog
yearbook
##ishes
grim
grants
grotes
nothingness
pleading
longing
longfell
lifeless
reman
mao
mait
maim
beforehand
##udel
cret
cray
crashing
girdle
lasting
kinderg
elk
elit
hover
hoffy
coupons
miners
miniat
minnea
shits
parting
boycott
lists
ade
adap
adoles
adios
adolph
isnt
##achi
perceptive
mona
monte
homey
homeboy
lacy
hiking
hippy
flux
flashing
faz
facial
handker
acute
##integr
playground
phr
pham
runners
##ildo
##pto
hearse
showtime
##orda
##ordination
disintegr
##eys
headline
morally
serum
resolution
crabb
crappy
interruption
strudel
parap
parlay
insin
insul
insub
inscription
insensitive
slang
slush
sliced
boiling
##acent
##acombs
saws
sawyer
contender
contamination
turnin
turnpike
divisions
commie
commotion
watcha
##roc
whichever
walkie
finland
##iances
poles
dealings
comply
composition
tripping
holder
harley
harkonn
capri
damnation
tenant
endow
endea
endured
jacked
jackpot
farley
farming
##ultz
beauh
wonderland
metab
eaters
editing
excused
excessive
christians
christopher
decap
gunning
booking
evasive
prompt
##insky
skipping
movements
cavern
millaney
##ottle
charade
charitable
graf
graft
obi
obit
awareness
luckiest
bedford
bedbugs
numerous
eights
doorbell
passages
dreamin
syrup
lightly
shooters
brag
colt
colosse
##azar
pullin
imported
consort
consume
consarn
delin
delgado
firepower
steppin
benson
geographic
incons
incoming
truthfully
##ensch
##ensible
##ouche
watered
newsstand
sickening
eyesight
##avier
defy
deficiency
espar
saliva
salzburg
salazar
sentenced
registry
fallout
draggin
diedre
curry
curves
curric
arrows
greens
greasy
greenteeth
filiba
##umbles
louella
##pression
magical
extinction
profanity
testa
transp
transmiss
midst
sats
saturn
sami
balloons
ballgame
mistook
impose
imposing
landy
smallest
smallville
entrusted
entrepr
bankers
medals
colds
keyboard
humanly
merv
merrill
frees
freck
nickie
##ricide
erratic
throwin
pleasurable
psychos
pastry
doubles
covert
repell
repulsive
stepmom
fairbanks
botherin
condolences
viking
learns
wales
floats
counse
##fortune
accidently
judicial
smarts
##zza
presses
clocks
##maids
courteous
miscar
mischief
misfits
misfortune
considerably
commanding
##bral
chickened
irving
irrational
eyebr
kickin
cabbage
solitude
damages
rockin
birdy
turley
turks
suites
hopin
bricks
enjoys
lunches
practices
##ika
denny
virge
birthright
destroyer
toronto
borne
motels
boxer
boxing
19th
catacombs
cammar
cambridge
appreciates
cardinals
icey
ellingson
letterman
halls
hallie
garters
greenhouse
romans
arresting
englishman
fills
belongings
congreg
cowan
sanitation
directive
accepts
wildlife
furnace
louisa
louisville
equity
equations
antib
labs
##ueless
amaze
traveler
extraction
hyde
recognizing
recognizes
sensory
sensual
dependent
speculation
pinpoint
rubs
skinned
boyfriends
admiring
tapest
sleazy
existing
organizations
expire
vaccine
blindfold
batty
crackpot
janey
jennie
melissa
conditioner
lamont
dancers
##quez
oddly
yahoo
criminally
malaria
sharper
agreements
scarf
scarred
necessity
lasers
feld
commonweal
professors
authorization
supports
gripe
##ructure
archive
freakin
identities
berry
foreplay
poolroom
urg
titles
switches
licenses
plantation
booger
boogie
roster
hamburgers
originals
mccl
britons
bradley
fanatic
fanucci
rummy
satisfying
##fields
scarecrow
engineers
galley
galloping
fridays
remained
ratso
whispers
cyrus
venus
bonding
villages
wilshire
weights
immoral
raban
mutt
mutated
mutiny
storms
domination
kirkeby
developments
bummer
##affe
expressing
celebrities
lenore
lennon
salesmen
punters
sneaked
quotes
magnitude
unholy
mortg
mortals
enterprises
screens
189
stinky
laptop
primer
scripture
napal
tongues
vulcans
##gaard
trunks
blondes
fabian
##ylock
lifesa
guarantees
representatives
120
floris
florence
silverware
deckard
processor
antique
unfa
unfor
pianist
spelled
cultures
hypers
claymore
unsure
briefed
occurrence
bangkok
hoops
seduced
periods
tempered
temperament
photographic
cherish
dumpl
tabs
scratching
loaned
##cliffe
poured
wyant
##offs
toilets
##ivalent
nineteenth
cheeseburger
cheeseburgers
squadron
railway
boundary
bouncy
hobbies
renown
containing
deacon
ragged
##ohl
shaved
insults
termination
coincid
tuba
tubbs
barbaric
cynicism
qualifications
remarkably
applause
rancho
aimed
lunar
scanning
nedry
versa
outfits
gutless
francesca
proceeding
achilles
ettore
cerebral
tagged
pursuing
virtues
pleasantville
wormhole
cobble
kilo
tasker
envoy
occupational
luv
angora
kinnear
conceited
cloaking
dedicate
##liere
attendant
attendance
altering
intentionally
frivol
jaime
puffs
##ooooo
alerted
booty
crystals
miggs
buddha
formerly
tigers
greeks
concepts
helicopters
stressful
limitations
leonardo
nanny
gillette
omaha
omigod
sparkling
lambeau
weaknesses
sinclair
bitterness
1967
houmfort
hutu
unacc
intimately
telegraph
earnest
tolerance
receptionist
disciple
disciples
architecture
cunts
naval
vicinity
wadda
wraps
essentially
drafted
measles
1984
bogus
bogyman
platinum
compensated
sprayed
diploma
dynamics
auditioning
wickedness
##iii
blackmailing
rejection
skelet
voila
carrots
granite
restraint
distracted
torturing
##estering
shapiro
traumatic
elementary
observatory
symptom
corridors
vaughn
nitrate
nitrogen
##alyst
exploited
idealism
durin
jayne
##rehensible
hallucinating
tumble
##wait
reassuring
outsider
heavier
permits
severely
sodium
manifested
bruised
slammed
broadcasting
volunteers
bruno
drifted
exploration
consumer
addicts
addictive
vouched
inhab
inhale
stoolie
insights
metaphas
metaphors
solaris
brigade
accomplishments
sankara
mmmmmm
dimensional
orphanage
elden
ludicrous
maneuvers
unwilling
immortality
bouquet
cuffs
vaguely
amusement
advertis
compassionate
comprehension
robberies
fulfilling
fulfilled
catering
indulgent
stylish
awaiting
scenarios
overlooked
pulitzer
vagina
drifter
obtained
regularly
lizardo
patriotism
battleship
hormones
renaissance
comanches
uneasy
putterer
evaluate
embezzling
pharmac
pharmacy
transporters
impersonal
catalogue
estimating
hazardous
pimps
vocal
asteroids
plaque
unprof
discharged
obscene
republicans
pizzeria
vinegar
disclose
motivated
omelet
trespass
trespassing
compartments
musketeers
freighter
democrat
cotter
lagoon
wudan
loathe
offspring
scoundrel
earthquake
sarcastic
synthetic
patel
sterling
spacedock
graphic
contradiction
plaintiffs
challenges
update
spicoli
transmitted
keefe
##worms
emphasis
reflexes
mascara
cremated
hypnosis
mckinley
overreacting
##lichman
toxin
exhilar
bloated
stratford
incorpor
muslims
ruptured
tyrone
bleeker
electrician
massacre
bayonet
enclosed
tabloids
grasshoppers
hemorrhaging
oeuvres
accommodate
borders
gadget
gelatin
nauseous
norrington
pixilated
sizemore
anaesthetic
outrun
bridges
peasants
dismant
infatuation
masquerade
schizophrenic
poofs
rewrite
adonis
fawcett
parachute
recreation
apprentice
consigliere
condescending
catastrophe
chaperone
replicators
encouraging
phenomenon
pakistan
seizure
sparrin
blasphem
newsweek
eminence
cradle
minstrel
billiards
sublime
supermarket
malignant
mercenary
inexperienced
igor
lsd
mabel
porthos
szpil
##busters
chelsea
spaceship
impediment
adversary
paralyzed
eyewitness
delirious
argentina
picasso
franchise
nostalgia
mcgillicuddy
videotapes
cauldron
doreen
domingo
dictionary
kosher
roulette
vortex
##arnais
cheswick
worthington
betelge
longshanks
monopoly
lacrosse
pappas
beauregard
giulia
incarcer
magnesium
extravag
pestilence
bolshevik
cottage
eavesdrop
hannibal
kaminski
lompoc
pseud
wainwright
yvonne
shakedown
forrester
neptune
outweigh
saigon
extingu
arithmetic
spengler
quixote
quantico
budington
scagnetti
grotesque
longfellow
kindergarten
miniatur
minneapolis
handkerchief
beauharnais
colosseum
esparza
curriculum
transmissions
entreprene
cammareri
commonwealth
szpilman
0h
3rd
3jane
61
66
71
77
700
89
8th
94
93
ail
alder
bere
bick
bact
bach
bids
ci
cen
cuck
coney
cory
cates
cnn
cetera
dorn
dup
dots
dizz
eee
fay
fain
fath
fey
faded
fowl
gert
hic
hess
hoy
hond
hoth
icar
jr
jp
jee
jive
jumper
jurek
kaz
loo
litt
lanc
laps
lode
lumber
laloo
mio
moles
makers
nou
nast
nath
nintend
nifty
oyster
pager
ric
ruck
rath
rah
rift
riley
sith
sill
sart
sark
ting
tid
tav
taco
uther
vip
vizz
vcr
vandal
wre
witted
yor
yee
yenge
yikes
zin
zat
zen
zed
zere
zord
zaltar
##uch
##ruck
##rol
##rue
##roph
##rlichman
##fi
##fy
##fir
##full
##fax
##dings
##draft
##iard
##iques
##list
##long
##last
##lett
##lings
##net
##nant
##nna
##nals
##making
##singer
##han
##hose
##zh
##year
##yards
##aved
##kie
##kick
##test
##with
##wurst
##western
##pie
##pity
##pta
##peak
##cs
##cow
##call
##cra
##ccept
##cape
##cats
##comb
##corder
##gt
##gid
##gley
##gling
##gically
##van
##vine
##vial
##jor
##jee
##bot
##bus
##bul
##bab
##bred
##beth
##bilt
##bago
##build
##birth
##22
##ón
##ásy
thad
threes
##inch
##inov
theod
##onium
##anim
toen
toot
tole
toons
toying
##orch
##oration
##enov
whine
whizz
whooo
##escent
itís
##eding
##arz
##iso
##isen
##isine
##isley
##oton
##oting
##itant
##itri
##itime
##itutions
##omination
##asco
inad
inade
inqu
inland
inez
inhib
inmates
##recht
heist
heís
heidi
bew
beak
reina
revisions
rejo
##ereign
mek
mega
hag
hab
hailing
hazel
##usal
dood
dogg
doped
doof
dobbs
##ido
##idad
goon
goosed
gopher
goetz
gosp
shur
shamp
shines
shrap
shreck
shylock
##alies
##althy
foreman
forrest
dong
donuts
donowitz
knott
stard
stap
stint
stale
stung
stoop
stanton
lien
libert
##seat
notor
##chem
##adier
##advant
myr
mydick
nobel
nova
##irting
##among
##amish
##anter
##antics
##antically
##illin
##illed
##urf
neilsen
getcha
##cted
sopr
soho
allright
abc
abol
abys
abused
##terburg
##odram
outcast
output
asgaard
##riers
##riage
##rigal
##rified
##stak
##stru
##ndown
chong
chills
chimp
upgr
uppity
prol
primate
pranks
pronto
prerog
atone
athe
suga
##icament
hows
##acked
deird
deme
deetz
##unes
##unapt
frisk
##rave
##ravation
alotta
alignment
alpine
everest
everlast
saks
##geon
goodwill
manning
manually
orgy
logging
ohmy
usc
yesil
platter
plung
pliers
placing
##igma
sez
seals
seeds
segment
##ulence
guiding
exert
##alkin
##ifred
##olite
##olence
arent
arise
arbor
comments
##endrick
backers
backdraft
backseat
##obi
##aki
##ourse
spew
spears
meaner
bris
brake
brows
bronson
trot
trink
trough
truc
trumbo
trillion
carat
carve
hades
amos
amph
amput
fuckhead
##otherapy
cling
clash
clover
clavius
clobber
clueless
lem
leop
downhill
workout
overh
overly
overest
overjoy
overwork
overhead
oversee
beta
pep
unn
uneth
moj
moat
moan
byron
blad
blub
blushing
##berish
marr
marches
maritime
scaven
##elt
##elaces
undies
evenin
wring
wright
wrath
roz
rok
roam
rooted
roaming
grues
gretch
joad
joins
jokers
impe
imbalance
newport
lifeline
sirens
remed
##udes
##plate
##plug
##ango
poked
thru
thrills
throttle
swarth
##vester
##pern
kinder
elster
smut
smug
smudge
##izable
##gett
ada
perverse
monet
monarch
monuments
uhn
flake
flann
flores
flipping
flaming
flirting
faust
phara
phreak
phooey
##ondo
##oggin
idle
idol
buses
busboy
disadvant
##quiat
stub
owning
##mances
##eye
morg
morse
morale
##anson
resounding
crapper
interse
interst
provisions
para
paramed
insure
slum
slump
slaw
slander
slapping
scher
tract
trapping
trappers
cheery
pretzel
recomb
contents
turnover
divert
dioxide
sonris
appra
append
funk
funboy
commiss
commies
daitz
##neran
watchit
gloss
glare
glauc
fours
fourteenth
folly
##phone
bested
finals
finneran
attrib
##ggs
accustomed
teh
foundations
composed
composite
compelled
triangle
trivial
holders
sitcom
invoke
harmed
harcourt
capability
terrace
jacks
pavel
cuter
barb
barter
barman
barons
barbat
shoves
shostak
shoelaces
##anco
jesuits
schooling
wonderfully
restoring
edith
untrained
shutters
shuttles
dolly
secondly
relating
relocated
relativity
decom
decode
hopeful
figur
figment
fifteenth
gunfire
highlands
breakthrough
evans
evasion
##itional
skid
caiman
apache
billings
sethe
bedside
numa
complication
doorstep
##ugnant
questionable
youngsters
explodes
##ivion
humph
airs
airlift
syd
sykes
lightweight
lightyear
confer
bragging
brawl
colour
##nova
jeh
##erties
honeythorn
considers
sideways
delaw
delbert
speaker
milt
firehouse
firecrack
##ressed
blacked
coral
steals
steamed
benev
bensinger
##necks
##nebago
followers
geom
geologists
incest
madly
madrigal
watering
buyers
engraved
learner
dinners
##ucon
snif
sneeze
snickers
sorting
powerless
almásy
messin
budge
sexist
admits
defined
defender
defended
defenses
calam
calib
fuller
espress
salami
concur
huskies
winnebago
regent
murderess
petting
legions
singh
beatnik
suspens
subsequ
submar
filmore
filters
filming
louie
raided
cleanin
horrace
propri
proportion
proportions
properties
testoster
transpar
transsexual
midwest
classics
uncles
uncanny
ballard
ballistic
refres
visas
lockdown
distrust
impulsive
impolite
entity
bankroll
dickens
specialists
completing
foolproof
maryland
colder
merde
oww
fremont
masbath
##riced
squared
wallop
besee
##ospher
informants
mouthed
##undant
kisser
jerking
doubled
repet
repugnant
##ounge
fairlane
sunfl
##icular
protects
superf
supernova
puritan
danvers
palate
blowjob
##zzik
##unted
pressuring
##essional
##liner
cannibal
machete
roselli
bask
basquiat
misinter
cryo
treaties
commanded
##brook
smelly
ehrlichman
casy
casing
breathin
cabs
solves
sidetrack
rocking
rockets
rockwell
growin
turban
suitor
hops
weirdos
knockin
##iko
futile
crossroad
quitter
sandbag
footprint
drunker
fedex
detector
destroys
fearful
motors
trucker
190
escal
weddings
governments
dunne
dunois
##bedded
ladders
digg
digger
cambod
##uctive
bleak
garc
garter
greenly
boarded
romirez
geeks
oppose
opponent
dumbshit
embry
settin
splits
casts
macaron
verified
earp
suckin
suggs
calmly
##annie
##iterate
continually
fielding
directory
gardens
##toe
argued
electra
investigated
seaweed
heavenly
holed
physic
pardner
blockade
rained
raincoat
##cyte
terrest
trickery
yellin
reminder
autumn
credits
guarding
fitzs
codex
henri
##uitous
audiences
piled
blinded
politically
crews
tarz
buzzer
viewing
ideally
loosely
melodram
healthier
receiver
recepta
swimmin
screams
professionally
keating
malays
contracted
sharpen
browns
scarin
heavyweight
bodily
feur
fezzik
treehorn
creeper
##minate
stockbro
crawls
puking
projecting
projections
stanford
archives
lucret
lucrative
softly
generated
berk
berger
bono
bonjour
sightings
richardson
westerburg
assistants
lyric
urges
statute
santino
duly
dorsey
interviewing
gangsters
volga
volatile
hamunapt
scrunch
ethi
##iators
##iatric
committees
speedometer
laurence
wisely
internship
hunts
jacu
ratfuck
ramón
meatballs
villagers
villains
skylight
115
rabin
hawthorne
reacting
domain
surrend
stomp
choppers
sundays
bumble
expressly
commissioned
##roller
matin
puny
socialist
quarterback
carton
cartoons
patterson
morton
wireless
chapin
chapman
chaplin
185
187
pinky
springwood
appointments
lapse
msayin
nutty
vampira
rodgers
toothache
targeting
naples
napkin
janeiro
analogy
albatr
provo
provoke
provides
dusted
improper
florin
carpath
oxford
peeing
rhian
diesel
injunction
persistent
coastal
coastguard
variet
variation
nunheim
thorpey
epic
epile
halpern
unsc
briefs
sedation
tentacles
oooo
pads
##glen
gears
##forward
##forced
photography
chernob
spreads
lecturing
deceived
canceling
intends
oblivion
nineties
psychoan
predicament
shelters
boredom
circumstance
ducking
implore
implanted
escaping
deact
mackey
despicable
mulholland
educate
educational
giggle
lorraine
affecting
blessings
montague
haywire
hackers
disgusted
bailed
lacks
preaching
challenger
##deus
chucky
impressionable
kujan
kuwait
lobot
scanlon
determination
flattery
drumlin
confessions
responded
virtual
virtucon
cruising
cobra
clinics
bumps
dyson
whacko
litigation
rotation
tuition
alternatives
convene
pacif
neatly
conceived
450
cuisine
deduction
rugs
rugrats
tattagl
unbelievably
industries
railroads
frying
tribes
tribute
adjustments
individuals
salvador
documented
##oooooooo
unprep
structural
colonists
scraped
scrawny
hockley
advancement
surrounding
wanders
##baum
cowardice
palmdale
hitched
racquet
##holders
weirder
patriotic
irishman
sparks
polls
pollution
frequencies
specifications
ingles
sweeping
concerto
nyu
##semble
subspace
subscribe
landscape
1969
16th
siwash
unaccept
shouted
werewolves
coordinate
homesick
baltus
schwarz
wadn
wiping
dialed
orchard
1980
bogart
rascal
##crity
shithole
scouting
superiority
convicts
mandatory
gyps
withdrawn
mocky
mocking
mocked
pencils
frustration
applying
inventory
sync
administrator
greyhound
turkle
criticize
nuthouse
granma
decorator
jacobi
##immel
##immons
scalped
lawnm
shoveling
observations
pacifica
nitwit
##breaker
plumbers
exploiting
matthews
biocyte
tangled
tangiers
sovereign
sumbitch
commodore
simplicity
penetrated
diplomacy
mongi
hammock
sofie
goodspeed
queers
##whati
1972
survivor
predictable
exaggerated
harassing
obstruct
purchased
bondsman
withdrawal
scramble
consultation
streaks
multiply
manufacturing
bunks
intensely
explorers
treasurer
crumble
faxed
craziness
3000
arabs
ivory
roasted
breached
eduardo
windsor
1945
constitutional
expanding
mmmmmmm
titanium
erection
flushed
depths
tibetan
manipulate
manipulated
brassiere
sketchy
sketches
sylvie
cortex
sshh
tsk
coupon
hydro
specifics
caterer
ponds
anticipated
henderson
kobo
veterans
tropic
glowing
awaits
discourage
verdell
dispatches
satchel
slippers
patronize
regulars
accelerated
baines
mourn
mildly
##broken
meadows
enlightened
overheated
##ogenic
cunningham
rattling
ulcers
##speak
revelation
chaste
embezzle
crumbs
prejudiced
colombo
colombian
estimated
botched
pimenov
exceeded
oriental
orientation
dishonest
emilio
fertil
fertile
squeamish
veto
##creen
thirteenth
reversed
defective
behaved
snotty
squirrels
tormenting
fiancée
cushion
##zsche
worshipped
arsonist
bubbles
eloquent
disneyland
demolition
prosperous
bosom
bixler
stuttering
videotape
fundamental
hypnotized
pyramids
dabble
iím
reptiles
indictment
hungarians
suburbs
correctional
tranquilizer
tranquilizers
dandy
overpriced
newcomer
dissection
mediocre
mediocrity
mascot
turbine
neglected
grieve
mckinney
recollection
oasisburg
reeks
noodle
noodles
lovett
arrakis
intervention
intervals
paramount
parameters
unrealistic
dulaney
vanderbilt
wrigley
anomalies
aspects
sugai
plunge
belgian
trilithium
reluctant
indigenous
espion
annihilation
alexandria
mcintosh
imprisoned
enlightenment
astronaut
merchandise
pompous
ssssh
yuri
plagues
throbbing
swiped
proximo
concorde
ernest
seagrave
##ophobia
pantyhose
acquisition
luciano
rasczak
resourceful
apron
cricket
dyslex
gettys
aloha
saucer
unhealthy
diabetic
prophet
uncontroll
mcgruder
deductible
abducted
dmv
dialect
gavin
mescaline
nietzsche
abnormal
astonishing
envelopes
scourge
performances
premeditated
triplette
watermelon
extradition
typhoid
purgatory
tournament
gynecologist
czechoslovakia
cucamong
jethro
oveur
forsaken
outdone
dexter
frenzy
guineas
contingency
unoffic
flavors
travesty
confiscated
burrito
starbucks
irregular
expendable
hillbilly
improving
paleontologist
economics
burgundy
kommandant
aphrod
aquarium
biederman
mouthing
nugent
omega
poultry
rallies
riedensch
tutsi
memento
dooley
solemn
cheyenne
prairie
shepherd
manchur
gummy
caretaker
clerks
adequate
endeavor
transponder
miscarriage
feldman
coincidences
cobblepot
metaphasic
unprofessional
blasphemy
betelgeuse
dizziness
hondur
icarus
laloosh
nintendo
ruckus
vizzini
vandalism
yengeese
thaddeus
toenails
shampoo
shrapnel
abyss
prerogative
deirdre
ohmygod
overjoyed
overworked
unethical
gruesome
gretchen
impecc
pharaoh
sonrisa
barbatus
shostakovich
delaware
espresso
suspension
submarine
testosterone
transparent
sidetracked
crossroads
cambodia
macaroni
fitzsimmons
hamunaptra
albatross
tattaglia
unprepared
cucamonga
riedenschneider
37
52
58
67
96
ary
ache
bil
braid
bender
cag
cakes
dimes
dues
darrow
dagger
duality
douche
eerie
ejac
foo
fend
fals
fives
furs
fiber
gome
gould
gur
gul
gage
hq
hort
hanc
homb
houn
hoof
hires
hedge
hinkle
ic
icon
ipo
jf
jd
jiff
jib
jama
kw
kg
kan
kle
korr
kual
kru
krie
kwan
koko
lakes
latt
loops
loma
mink
mook
mound
mak
mash
mert
mung
mitz
minks
mkay
nt
nc
nome
nab
nina
nya
nbc
oy
ogg
omar
pc
pough
piet
punt
puls
pessim
rer
rar
rie
rook
rina
sall
sard
sno
siam
sooo
sgt
tion
tic
tine
tary
tuss
tilt
tainted
tippi
tiki
tumbling
ved
vich
voss
varl
vale
viny
voll
vidal
wield
woll
xavier
yi
yoy
yny
yug
zy
zod
zil
zig
zones
zipper
zeal
zozo
##ui
##uus
##uire
##rh
##rude
##riment
##fo
##furt
##east
##dam
##dish
##dies
##iom
##iak
##iates
##iago
##lr
##lits
##lov
##lishing
##nar
##num
##nation
##mand
##mie
##mies
##mings
##mination
##moral
##oad
##hof
##harm
##zio
##zilla
##znick
##aways
##aci
##kor
##kens
##tz
##taking
##tors
##tical
##wad
##pic
##pire
##pence
##cam
##cur
##crop
##cano
##corp
##gf
##gang
##gale
##guff
##gosa
##jorn
##but
##bay
##boo
##bour
##bolt
##40
tha
thump
##oure
##ourage
##oufl
##erp
##eroy
##erta
##erated
##iners
##inters
##inette
##inari
##atar
##athing
##onge
##anide
##anza
toed
toff
##ingo
##inges
##lll
##orant
##oria
##orative
##orius
##eno
##enk
##enie
##enzie
whar
whir
whippin
##edus
##isan
##isse
##eting
##otle
##itic
##itives
##itudes
##omo
ine
inert
ingr
inquis
##reides
##regn
##veau
##ayas
hemm
hectic
hebbing
wept
webs
reop
reiss
meld
mecca
whatty
haze
##lege
dole
dopey
##idable
##idated
gover
goog
golits
isley
shal
shill
shea
shite
shud
shiver
shouts
##ali
##alanche
forfe
forem
##imps
##imitar
knob
stear
staged
stacks
stokes
stumble
licks
libel
nother
knowwhati
##champ
##chio
##adas
##adre
myri
wast
noah
nosy
nosed
##ithful
##antis
##eemed
##iller
##illas
##illers
##entious
canda
canoe
withhold
##urdy
##urize
##urities
##alle
##alling
neon
nebble
sos
sodom
abetting
##terman
##oding
outright
outcome
outbreak
asap
asth
##rice
##rious
##rians
##rigue
##stam
##stated
##stro
##strap
##ndest
gots
chut
upstart
prow
atreides
suave
sult
anyroad
howling
howls
##andy
##andez
##iev
##ppa
deuts
dehyd
fraction
fringe
whos
welly
##raught
##raced
herm
herod
alum
##arton
##arted
saps
sacha
manly
manfred
orion
orte
looney
loins
lolly
loco
ohm
tellers
plight
plough
plotted
plugs
plugged
timothy
##istible
##istrate
seam
seized
##ulment
##ulates
##ularly
##ulnerable
##osia
##olas
willis
arlet
arousing
comet
combed
##ende
##endously
##abo
##abod
##abag
timex
backl
backtrack
##nage
sphin
spokes
sponge
##uma
everythin
offa
brus
brist
brushing
trud
trance
trini
carver
carame
amal
amped
##apore
okra
agn
clone
clint
clipp
clerg
clipped
cledus
lei
levene
downer
##beats
happend
overman
pew
unbe
unions
unatt
unru
unpar
unmark
unworthy
moines
quo
quas
quail
quiver
quinn
droo
drake
drought
dross
drenched
blum
blund
blizzard
##aceutical
intro
muld
##berstam
buggin
maru
marqu
marian
marvell
marjor
scand
scud
scarl
scutt
scimitar
##elin
##agi
##agin
##agus
##that
hugging
godzilla
unders
thanked
underage
underhill
undermine
giveaway
belch
belved
roc
rolex
roaring
gropp
grudges
waved
findley
##ipated
jog
jokin
helper
helpin
longdale
newman
newborn
intoxic
macc
putty
##tails
##pled
##icho
cron
crust
crises
crushing
crotch
cranes
leaky
pox
swh
swam
swung
swoll
swapped
kiddie
kindred
elton
elois
eluded
hoist
smir
smurf
##izoot
adores
girlish
realism
realization
assurances
pertain
perrier
monks
monescu
lava
launce
hier
flack
flap
floss
flank
flipper
flashed
faulty
acula
understan
missin
##cio
phoe
phoning
runway
##ptions
##ptuous
##ogues
idah
##ulls
buss
disast
disable
disple
diseng
disability
##nyman
tomah
##manship
##iah
##eyed
headlights
morn
morose
##othec
##sheet
reson
resil
resulting
interstate
strode
stroking
parl
parcel
parais
paratr
parsons
insolent
insolence
slink
slop
slope
slices
slinky
slacks
sliding
roommates
bois
booted
##acola
schof
yaw
leftovers
##ictions
toni
pretentious
##ignon
##dyne
wary
divin
diana
commence
dai
dah
daffy
glued
glenda
glitter
glutton
##rost
##rovert
ahhhh
sixes
sixteenth
foibles
walkers
walkway
walkman
fines
fined
finelli
preview
accents
telem
seemingly
payne
compost
compieg
trif
triggered
sites
designing
descend
desirable
invulnerable
harvester
caper
surreal
termit
##isters
jacko
paisley
farrah
opener
openers
##asha
senile
seniors
jesuit
giov
rested
preserv
prescribe
childbirth
sleepwalk
edwin
standby
dieu
christoph
prizes
relate
relays
wantsa
decay
decline
decomp
decreed
highlights
hotshot
hottest
##aired
coppers
interestin
##ibals
##ibald
sked
skrap
caul
cavana
apric
apothec
##otti
chariot
grapes
obregon
genetically
bedev
bedsoe
##ceptible
heartbroken
complicate
##ahah
doorkn
passin
passkey
inde
indis
indent
indicated
index
induced
explicit
##ivities
humid
humour
humming
frankfurt
airy
confound
confide
conform
bloodstream
bravest
lateral
##azine
##ertation
inflict
sendin
faction
consulate
consistent
sidekick
delt
speakin
speakers
firewood
blackout
discon
discarded
geographical
incub
incidents
inclination
maddy
madmen
madhouse
madrid
##ensions
instability
institutions
waterford
expectin
expectation
engaging
retro
lieu
liege
snore
snatched
whitehall
collision
##okie
strained
numbered
burbank
##aval
robbie
defuse
sweets
windthorne
grande
granddaughter
starin
winifred
petrified
##apple
hangar
singin
singapore
curing
curator
cursing
subvers
membr
memoir
raisin
maguire
magistrate
buildin
extras
prophe
testicular
##ysical
annulment
transship
transcend
samoan
uncond
balled
ballistics
##otechn
refinery
refusal
catchy
lesser
distortion
distinction
distraught
entourage
girlsc
bucky
rundown
keymaster
sellin
humanitarian
fasten
fastball
poorer
merci
freb
freeman
##ricular
erasing
poppa
popeye
tybal
informal
darker
posing
psychosis
pasture
jerky
jericho
doub
operas
operated
operates
exceptions
markets
tote
quickie
learnin
sticker
superc
maxim
councill
danube
palaces
palantine
earthly
juda
smartass
##zzles
##lining
cannibals
trainee
shortie
shorthand
clockwork
costly
honorary
basics
treatments
commanders
valets
devote
devoid
##versial
casa
cashing
iran
irri
irth
cabana
telepr
illogical
striped
stripper
convoy
conniving
damien
rocker
rockef
junot
##borg
turtles
weirdness
knocks
bribery
upsets
enjoyment
enjoyable
luncheon
ticks
tickled
goldmouth
##etheless
demer
denning
denise
futterman
sherlock
layers
##grown
##uffy
drunks
lowe
detectors
torches
torres
fearing
busts
pissin
pissant
##cessor
formica
formidable
screwdriver
##boats
unclefucka
catalyst
communism
carlson
acrob
diggin
camille
camoufl
##ovico
responsive
armstrong
cardiff
cardinal
cardenas
icebergs
forties
occult
garber
garments
greenwich
greenhill
greenpea
silky
rollers
circling
romari
##iliation
germ
vanish
violently
accountants
opposition
tracker
trackers
embal
peacefully
macy
macguff
congen
vermin
veridian
impressions
requis
miriam
earning
philby
philanthrop
philharm
colleges
modified
modesty
continu
ceo
ceased
southp
southglen
southeast
visitation
witnessing
connecting
failures
esteem
threatens
acceptance
wildest
aviator
avalanche
argyle
equiv
equivalent
laboure
##bius
elections
rounded
bowery
bowel
bowman
bandage
seale
hola
holster
hym
hyman
hydra
suffice
sensing
##hammer
physicians
earliest
##bbled
comfortably
neighborly
pinea
pinhead
##meroy
kenil
kenya
kenworth
auton
spiral
guardians
julien
techno
skinner
admiration
admirable
civic
northwest
agreeing
bathrooms
smoker
organa
expel
terrify
balmoral
viewers
francais
jani
janus
janie
##guided
portugal
particulars
bearer
jenzen
melinda
lamotta
swimmer
nurt
orif
malicious
issuing
browning
brownie
routes
reprogram
succumb
civilizations
##parable
commonly
breathes
breathtaking
authorize
shocks
creeping
niggas
stockp
stocked
supported
grier
griev
harmon
harmful
puget
puzzles
archbishop
archibald
cornered
warmth
identifies
bonnie
sighted
##iesta
seatbel
customary
##headed
assisting
horribly
urn
titus
santiago
freshen
licence
famously
boogey
rosy
rosalie
volts
volvo
volumes
volcano
sporty
mcconn
rapture
raptors
braddock
grader
mailman
laurent
fanelli
gambled
airports
satisfactory
severin
complained
militant
virginal
gallows
10th
ratio
##genstein
cypher
cycles
cyanide
ramada
venison
repeats
apparatus
nonetheless
familiarity
snowing
snowman
logs
communicator
110
fema
revived
shrunk
clientele
corrado
muther
mutation
mutants
exec
squarefoot
rowdy
chopsticks
cooperative
baer
loudspeak
develops
accordance
bummed
expressed
creams
punchy
punchline
jerked
cubs
karate
sneakers
tipsy
sinister
naah
defenseless
morty
buffoon
188
springtime
primo
primal
jabba
nutcase
surfers
rodrigue
depressive
desperation
targeted
leda
rushes
coleman
hilda
masked
stabbing
bleedin
separation
separates
separately
albino
albrecht
dispos
disposed
faber
province
provoked
1200
silverstone
faculty
strangler
sweatin
sweaters
peeking
ferment
injuns
schedules
latent
thorgan
shaddup
competing
epizoot
halberstam
thyself
methane
sophistic
huntington
experimented
bangin
optic
optical
pierced
bartlett
wolfgang
confirming
counselors
cherries
pillar
pillows
pilletti
taber
tablet
lectured
##aaaaa
incidental
museums
liberated
spoiling
rescind
shelves
##oscope
##oscoggin
circumstantial
pitches
renquist
implicate
flashback
faggots
raging
raggedy
demanded
dimensions
katie
recovering
benefic
gigantic
gigolo
lori
mumble
popularity
bungh
replied
widely
novelist
explanations
regarded
exercises
fiasco
tendencies
widows
tossing
kiddies
theaters
barnard
horrid
lizzy
lunatics
nathanael
utility
utopia
whistling
scanned
adjacent
boomer
influenced
dilig
dilithium
troubling
borderline
##blood
drumgo
drummer
serials
proceedings
exchanged
dissent
dissertation
etiqu
pedest
peddling
##knife
candied
purser
nationals
flagged
pornos
134
doughnuts
hanover
##ebag
initiation
215
barrytown
neighbour
gestures
luau
beefy
rebound
aggravation
bargaining
bargained
watery
anthrop
conceivable
settings
establishing
cube
norther
tattler
tattoos
atlantis
sprang
sprung
attendants
bowlers
obligated
nih
astute
alteration
savvy
intentional
tribal
tribuus
frigid
independently
##relles
israelis
cliffs
patrols
thicker
mechanics
schemes
schematics
colonial
instantane
hustling
##atonic
sabu
captive
legends
surroundings
hoods
laundrom
yessss
waltzing
hitching
racism
defeats
wrestled
gillian
humped
sparky
symbolic
sincerity
vigil
whispered
fogg
vintage
1963
1960
deejay
rawl
valentino
egot
egos
glorified
kristina
237
pipeline
tolerant
architects
revealing
kipling
youthful
outlook
summit
enormously
essay
memorable
memorized
dictation
dictates
loner
municip
cranky
1985
maintained
technicality
ackerman
bogan
kali
voting
##iveness
grammar
coronary
annoyed
convictions
mandy
injections
butchers
branches
##nowitz
neuro
neurosis
trippin
gyges
anonymity
praised
smuggle
gibberish
deliberate
strawberries
reflected
stirring
orphans
administrative
myths
assembled
guinness
granny
restrain
rehearsing
molested
ozzy
whitew
shaping
writin
flaunt
prostitutes
riddles
historically
requirements
fantasize
nitro
concluded
selznick
simplest
conveniently
odessa
hammering
bronfman
jocko
flooding
contributions
folds
1970
sabotaged
baptism
mushy
crusades
brewer
cosmetic
narcissist
fuchs
lamps
suzanne
airplanes
1935
1939
multiplied
manufacturer
bunker
jellybean
nagging
ichabod
sisco
gullible
gulliver
tramps
swanney
brigman
brigadier
thermometer
aaaa
ingenue
irresistible
expanded
unexpectedly
perpetrator
coughing
haste
jawohl
proteus
enlist
overrun
innocents
spanking
cocoon
confronted
reformed
cortez
lingo
overdose
crunching
diagnosed
diagnost
incomprehensible
jasmine
eliminated
indulge
columbus
kilometer
pancreas
loafers
seminars
blazing
definitive
mathematical
lanterns
bienstock
gems
mtalkin
stimulate
offenders
brasi
brasil
presumptuous
patronizing
irritate
irritating
dominant
optimism
cummings
harlan
hormonal
mildred
##broke
exorcist
##oltz
unearth
constructed
counterfeiting
bicar
ratted
theoretical
revelations
##keepsie
clams
crumblers
handcuffed
pharmaceutical
babysitting
cavalier
impersonating
categories
dreary
nudes
nudie
nudity
vocab
##dorf
spineless
enchanted
insomn
graffiti
distribut
vengeful
dishonor
hypothetical
motorcycles
maneuvering
kryptonite
pommeroy
shabazz
shabbas
allegations
hermanidad
morrissey
retainer
executioner
tampered
anesthesia
olympics
earring
fennyman
pensacola
squeal
##rillas
thirties
thirtieth
stitches
grovel
squirrel
ambushed
aerop
dreyer
wholesaler
loathsome
endangering
endangered
beauchamp
squawk
welshman
cyberdyne
microscope
allegedly
cici
fernando
siberian
yoga
forensic
##oslavia
mayflowers
levine
emerge
laxative
fundamentally
variations
hitchhike
dwarfs
coyotes
olaf
meyerling
sumpter
dementia
aristotle
flunked
sniper
muskie
muskets
cheerleader
nipple
tessio
guerr
guerrillas
moebius
newcomers
handicapped
dissect
grieving
rimgale
vasquez
pronounced
overthrow
precedent
regretted
muslim
immensely
oeuvre
rielly
tepui
wrigg
anomaly
plunged
twinkies
amarillo
amargosa
moisture
hippies
hijacked
disarmament
indiscreet
squeezed
bleachers
mcintire
marshmallow
marshmallows
intimidated
arabic
astronauts
merchandising
pioneer
rolfe
sighs
valdes
carcin
scrolls
residue
untouchables
christsake
awakened
subdued
imaginative
positronic
taiwan
grifter
grifters
bootlegger
kooky
nourishment
staggering
chubby
delegation
mannheim
moorings
scurvy
lifeforms
flintstone
slurp
dahlberg
barricade
roadblock
affliction
oppression
embarassing
taxpayer
scarcely
projectionist
deceitful
mosquit
bawling
##lesticks
androscoggin
prudent
##ravitch
trendy
enrolled
perjury
sluggish
sledgehammer
diapers
indicating
supervise
prodigy
quarreling
archeological
corroborate
applicant
increasingly
raspail
obstetrical
lashes
nylons
ogre
paternity
thalaron
twenny
roxy
grouchy
adrift
controversial
premonition
metallic
syllable
discredit
deformed
eskimo
disapproval
horrifying
mathews
bureaucratic
ceremonies
rebellion
rooftop
microchips
bazaar
cpu
cullum
hologram
mhravitch
tourelles
titties
vultures
thurman
antoinette
libyan
outnumbered
fratern
orthoped
lollipop
##osystem
coffey
phrases
insinuating
insulin
insubordination
metabolism
repellent
congregation
tapestries
urgently
napalm
lifesaver
unfaithful
frivolous
skeletons
advertisement
incarceration
eavesdropping
pseudo
entrepreneur
bacteria
cuckoo
gertrude
hothead
sartorius
zinnowitz
inadequate
doofus
shurrup
everlasting
trucoat
cloverleaf
blubbering
paramedics
benevolent
refreshing
beseech
##ospheric
misinterpret
garcetti
terrestrial
receptacle
stockbroker
lucretia
lyrics
ethiopia
jacuzzi
surrendering
chernobyl
unacceptable
gypsies
lawnmower
embezzlement
fertilizer
espionage
gettysburg
uncontrollable
honduras
impeccable
aryan
gomez
hancock
houngan
jfk
kuala
kruger
krieger
mitzv
poughkeepsie
rieper
varlac
vinyl
wollsten
ynyr
yugoslavia
whattya
golitsyn
shalom
foremost
stearns
myriad
candaules
nebbleman
asthma
ortega
arletta
trudell
unmarked
belvedere
groppi
swollen
launcelot
phoebe
idaho
paraiso
schofield
compiegne
termites
giovann
preservation
skrapinov
cavanaugh
apothecary
doorknob
memoirs
prophecy
tybalt
councillor
greenpeace
philharmonic
hydraul
mcconnell
rodriguez
epizootics
etiquette
municipal
01
03
06
1st
51
73
8a
86
92
98
aver
auf
avery
ainge
bis
bess
bong
boney
baking
bleep
bors
baz
bama
bism
bbc
cn
cq
cody
coss
cache
coded
ditt
dern
dago
dya
dinky
dildo
ew
ena
eta
eile
eps
eeg
eww
eisen
ft
fus
fust
fie
fatter
fanc
fates
fens
fused
frick
fda
fuh
fizz
fudge
fencing
fhl
fisk
fidelity
gou
gly
gess
gour
giff
gah
gai
gomm
giddy
gingham
hoss
hano
ight
iram
igu
iggy
jad
jak
jank
jah
jav
japs
juke
jizz
jangle
jolt
jango
ked
kow
kut
kink
kell
kest
kol
kund
kov
kham
kader
korda
ler
lank
lars
lared
lup
luce
lending
lapsed
lutz
lulu
lissen
mow
mitt
mia
muth
mesh
mik
mounds
mashed
ng
nir
nace
naps
nike
nines
nether
nano
nva
oat
oint
oars
oss
omin
ollie
pon
pher
pand
puck
pum
pff
pia
pett
piers
panda
pimm
pagan
pestering
rant
rama
ritz
ruses
rko
sow
sra
sade
tm
tet
tate
tach
tnt
tarl
tug
tapp
tumb
tcha
uz
u2
vr
vie
vanna
vette
ville
vested
wou
wards
wien
wunder
yar
yoo
yore
yol
yew
zag
zapped
zeus
zeph
##uza
##uendo
##riss
##ross
##rock
##rope
##rower
##rances
##rino
##rising
##fu
##fa
##fun
##fig
##finger
##faced
##eck
##elda
##des
##dled
##dox
##drive
##iree
##iological
##lam
##lore
##lob
##lac
##lety
##mat
##mor
##mis
##mell
##moth
##mph
##oil
##scan
##hay
##hic
##hive
##zac
##zzy
##zura
##aan
##aving
##tea
##tag
##tieth
##wife
##wling
##wana
##weds
##world
##warming
##wheres
##pf
##pd
##pal
##phing
##pick
##pock
##pings
##cotch
##gow
##gly
##gown
##gren
##groom
##gma
##vaney
##jama
##bet
##bear
##bull
##bins
##bread
##xley
##xcow
##16
##74
##21
##47
##30
##él
##97
##62
thine
thumper
##erent
##erty
##erian
##inant
##inarian
##atri
##atta
##atary
##atio
##atops
##atoma
##atoga
##onov
##anos
##anum
tory
toled
toscan
##oric
##orra
##orian
##orating
##enade
##enza
##enbaum
whome
whup
whipping
whopper
whorf
##esden
anon
aneur
itches
##isi
##isa
##isma
##isbury
##eties
##otus
##otected
##itus
##itering
##ituted
inward
innings
inigo
inacc
##rect
##reci
##vee
##uter
andre
hefty
weaver
beets
beany
reared
reapp
repress
reels
##erel
meir
habe
haaa
hailed
##leader
##usch
##usov
##ghhh
dodd
dokey
dogged
doggy
dooms
dovey
doberman
##ldwell
gob
goats
gobs
##alc
##alamus
forear
##imondo
donate
knif
knaps
knuckle
stal
stem
stench
stunning
lias
lire
##chin
##chal
##chure
##chinn
##adt
washer
nog
nostr
##amamie
##antha
##eeb
##ente
##entless
canfield
##urh
##urg
##urus
##urous
##urring
##allion
neh
neal
neander
nepal
##ione
soar
soles
allo
allus
aber
abdom
abrams
abomination
##odel
##odorant
outing
outlet
outraged
didya
didja
##inkillers
##rily
##hers
##sta
##star
##stage
##stones
##nde
chit
chore
chard
chol
chak
chag
chock
chapp
chases
chester
upward
upped
uprising
pris
##opoul
##rys
atley
sulf
suzy
suction
sums
suited
suicides
##icz
##icer
##icab
##icillin
##andall
##essing
##iem
veal
vega
##acking
##pph
##ppies
deke
deci
dearly
deodorant
##unter
fra
fron
fris
frisco
wholly
somepin
somewheres
righty
seeker
nowheres
##ravel
herpes
hershe
alps
alvin
aloud
looka
##arts
##ivey
salem
savi
sauna
##geons
manna
manila
ors
orlac
loew
lobo
loitering
usa
users
plots
##igible
##igern
##istine
##istrib
seating
##ulon
##ulas
##ulent
##ulary
##ulative
##osz
##osin
##olia
willough
willies
willful
willows
arsen
complement
comfy
##astructure
fromber
##venous
##abor
##abled
timeless
##obable
##obiles
##ourin
thang
##nah
##naw
##nac
##earse
spose
sposed
spared
spik
spaces
sparing
spasm
spiders
sprained
spouting
spivey
conch
conned
conund
twig
tweet
didnít
offence
offland
offending
bret
britch
brunch
brats
brenna
tres
tromb
trench
talkative
carne
carroll
mays
hadden
amo
amer
amster
ammon
clicked
clinging
clanton
needless
##beard
betaz
peini
pecan
unch
unity
unann
unified
unka
unres
unmar
unkind
unrest
unjust
unravel
moff
moans
moons
quilt
bytes
afire
droids
dresden
blanc
blower
blimp
blokes
muley
##berger
##bercul
##bernation
marital
marlin
marina
coons
coax
cohen
covet
##reated
sciss
scorn
scape
scoring
##elon
##elcom
##agna
##agli
huff
huxley
godf
godmother
undone
hellfire
lovemaking
##isha
##ishna
wrinkle
belts
rover
gris
grits
groves
trycht
nightgown
firms
##actions
jogging
imf
immin
implement
imelda
newton
newme
lifeguard
mawr
maelcom
##ueh
##tail
emory
eminent
embedded
croon
cranium
crandall
leah
leav
pointy
##irect
swoon
swapping
swifty
swenson
probate
kindest
elmer
hokey
hogs
hoarse
smoo
smog
smores
partridge
aden
adul
adelle
realistically
##ossa
perished
namely
mond
monot
monty
lao
lair
laud
hiv
hibernation
flab
flakes
fluct
flips
flutter
flippin
faire
fauc
badass
badlands
aced
acre
acorn
acrost
secl
startle
##cible
playful
playback
phosph
deadbeats
##ptons
##ogne
##ogens
##oglob
##ousel
showin
disd
disas
##taine
##aterial
stuart
tomcats
tomorra
motherly
fatherly
headless
headmaster
moran
morelli
sermon
sermons
##shr
##show
##shner
##shooter
reside
resides
resists
resented
crave
interim
interven
interact
intercom
stride
dads
proctor
parag
parish
insid
insuff
insurre
sled
slab
slither
slaps
slashed
slinging
rooming
worldly
boh
boar
##aca
##acies
##portant
##itched
chees
hardapple
recap
recite
reclaim
recuper
recurring
warhol
##angel
dipped
dipper
appla
appropri
commode
commute
dau
dav
daunt
##nero
##penny
##hnnn
##uben
glib
gluc
glances
babble
##mmmm
breck
cleo
clears
foam
##phon
plannin
finances
##xton
prevision
personals
poland
polack
attire
payphone
component
compadre
trio
trig
trix
triang
tripe
tricorder
desist
desider
invading
harness
harbin
capra
capitan
capabilities
capulet
surest
terra
womanly
tenure
tenants
paved
paxcow
painkillers
cutie
cutters
farrell
barley
barbers
barbed
barring
beaver
giang
gibbs
presby
prescri
eden
edvard
untrue
excav
exacting
doctored
priors
countin
relentless
halford
figaro
gunn
gunnel
gunpoint
gunshots
thousan
highways
hotwire
copped
##sworth
bookings
evy
evade
promoting
##inson
##inski
lawman
skag
skater
skys
capped
caldwell
apb
apost
apoc
faceless
honky
##oston
seti
charco
charities
charism
charmer
charnier
gravest
genie
genoc
gennero
possum
##sonian
eighteenth
heartache
heartbreak
heartfelt
heartwarming
##uga
##anez
signify
indign
indeter
indec
youngster
##ontal
explored
##ivin
dreamers
airfield
lighted
troublemaker
confine
confuses
bloodbath
shootings
brah
bragg
brained
brazen
braggin
cologne
jeb
jeze
jeannie
hateful
infants
sender
honeys
imports
consulting
sidelines
deli
delia
fireplace
blackheart
blackboard
blackouts
stein
benign
benatar
depraved
discs
discont
detriment
incend
incont
maddox
freeing
retract
leary
learnt
forgave
pictured
fellah
whitefoot
messes
messina
collars
collaps
collines
strait
stravan
burp
burton
burma
burdon
##avit
##avity
robots
robbin
defl
calms
calmed
calming
calriss
sweety
sweetness
fullest
patten
salome
salts
salisbury
sentient
sentiments
papal
grandk
grandest
concub
winters
winkel
countryside
droppen
droppings
petite
petrov
fallon
legate
hanger
hangers
##sels
drained
stupidest
redfoot
reducing
redundant
redistrib
arranges
greased
suspense
susceptible
subter
submission
##atories
memos
raimondo
cleanup
maggots
gladstone
secretive
propulsion
profaci
frontal
natasha
testament
cools
transactions
bitchin
momentary
satire
samantha
refers
refined
refrain
straightforward
catchin
mistrust
locket
distaste
radiant
impart
impregn
favorable
dickweed
medics
meditation
martie
martian
buckets
ruff
yorker
yorkers
keyhole
poorly
mercer
mercil
merlot
merrin
mercier
owing
fremen
nicked
squander
##awa
wallow
imagery
tyson
typed
centimeters
darko
mouthpiece
posh
psyche
psychologically
psychotherapy
jeriko
hospitable
felton
##ocris
##ocopy
##ships
##gano
##iewicz
fairvale
fairfax
condos
conduits
vien
##iculate
##ractive
walsh
oughtn
systematically
purge
##heit
earthy
parkers
penicillin
clauses
##zzler
tremo
treacher
bagger
bagged
burnett
clocked
clockworks
bastille
##mael
laughable
laughlin
respecting
respectfully
misle
misinform
misguided
considerations
crypt
##alding
chickie
deepcore
devour
casually
swears
cabo
telepath
strive
rockies
investing
##boros
bluebell
##mington
hopped
hopping
briar
bribes
welch
lunchtime
tickles
soldado
goldwater
bathed
##eshit
##ethrower
##ikh
futures
sherm
hurrying
relaxes
relaxation
layman
layaway
taj
tavern
##grounds
sandmen
virid
viral
lowlife
risa
brainless
fearless
##nese
publicist
publication
compute
bottled
pissy
trucking
truckers
formation
boxers
mainstream
##bold
unclear
dungeon
digits
bombers
bombshell
woodwork
##tinent
cardigan
cardiologist
icebox
icepick
locations
garcia
greenville
rolltop
romantically
selfless
violinist
evils
evelda
shoplift
opposing
dumbarton
frederic
embolism
embraced
begat
splatter
splattered
macbeth
verb
requiring
earnings
suckered
##ursion
heroics
moderate
ceases
cookin
##ographing
cowgirl
computerized
photocopy
correl
wildman
coloreds
hooking
contacting
antig
labour
rounding
##ooner
lieutenants
extrapol
extracur
investigative
gaspar
seahaven
appearing
sailboat
pushin
crev
datura
pardons
quarry
blocker
raines
raincheck
##cycl
addresses
examiner
comforted
percentages
yells
brochure
impossibility
collects
rubble
riverside
spiro
clarity
clarissa
cameraman
potent
potentially
potaters
washroom
henried
henley
leeman
mclu
hosting
tapert
audit
panhand
piles
pilar
sleight
taxicab
##ographs
##ronne
organisms
expired
crewman
cooley
jams
jamming
tarry
spotlight
balint
proudfoot
crackhead
janosz
##laus
##laughter
graceful
gracefully
ports
portray
amazingly
melon
melting
melts
conditioned
lament
lamagra
langston
langtry
langenk
crowbar
swims
screamer
sarek
saratoga
precog
copycat
##estyles
climbs
cockamamie
bellies
bellmoth
##hearted
scarier
sweated
sweats
lasagne
repro
willingly
feint
breathed
ghostbusters
excellence
emerging
emerges
henryk
stocking
stockholders
pathologist
gala
projector
projected
ashton
softball
smithsonian
beret
bonfire
bonkers
ugliest
performer
deserts
##rops
foreal
forecl
successor
lyla
urb
switchboard
switchbl
victorious
dares
journals
freshie
brighter
introducing
touring
discovering
drags
rosco
volta
hamptons
scrounge
preferred
ethnic
mcclane
##iatrist
combust
nailing
rapists
sourpuss
pocketful
gradually
gradski
banal
banjo
fanchon
gamb
rumours
krinkle
krishna
wisecrack
wiseguy
brandt
lindfar
lindgren
whiskers
ramsey
bottoms
wilma
wilkie
bugsy
bugler
yeast
speechless
citrine
employers
designs
designer
feminist
rabid
revive
revlon
revolt
shroud
corral
mutilate
tunes
reactors
stormy
brilliance
adamant
kirshner
energize
seventies
cooperated
tallow
loudmouth
bumstead
##boni
lenape
matr
maturity
punitive
accessible
tiptoe
sinful
sinner
magnus
unhook
mortier
mortality
nicola
buffoons
hillman
pinkus
shapeley
springing
swelling
encoded
rodents
rodger
vulner
freedonia
snaps
wetter
chemco
mathesar
bulletproof
fabri
##monary
lifestyles
provoking
pussyfoot
dusting
improbable
##ija
##ijin
decked
processed
negotiated
155
15th
insisting
pianos
cultivate
dirtbag
persian
latrine
piracy
hypocris
psychiatry
entertainer
entertainers
competence
competitors
dignified
dignify
drowns
firmly
unsatisfied
unspeak
briefing
gatekeeper
sedate
sedition
sedatives
seducing
knighthood
chewbac
bartending
padding
temperatures
##iacs
geniuses
defendants
congressmen
photographed
cherished
dumpt
deceiving
##cloth
beaming
passionately
humorous
siege
siegf
rewarding
liberace
hollering
rigfort
25th
assumptions
progressive
hoboes
renov
renoir
renounce
flashlights
mackerel
dimple
dimitri
katmand
mulvi
mulvaney
journalists
giga
loren
lorenson
libraries
citizenship
hayse
teeny
coincide
cheerios
bailiff
peeled
##ciled
ciao
ribbons
wrecking
wreckage
barbarian
shrinks
theatres
qualifies
stretcher
stretching
appliances
surgically
horrors
rehearse
prevail
visionary
certification
certifiable
osc
adjour
ouija
versions
##block
ultras
crushes
dissolves
dissatisfied
pediatric
foxy
capitalist
responds
disturbances
##ishers
godsakes
assassinate
producers
smoother
cobalt
reviewing
spinach
140
dykes
dougherty
licking
bridegroom
occupations
212
tubercul
shoreline
alienate
jennyhay
reborn
semantics
sematary
wednesdays
lifetimes
cavello
rudder
angola
angstrom
crisp
kinship
wiggle
grossman
405
cukor
tattagli
dodgers
parading
paradiso
reconc
reconcile
reconciled
voluntarily
17th
stiffs
##enthal
astr
frigging
forests
cheeky
paranormal
billionaire
documentation
eternally
hesitated
oakwood
seniority
crystall
ilio
ilene
nikolas
spillane
colonization
snapshot
bulgar
sabre
sabote
scraping
hocker
hockney
channeling
hoodl
mckendrick
sacks
beehive
politely
tremble
greely
yesss
bends
nanook
raccoon
##carora
atmospheric
premises
patriots
analyzing
analytical
humpty
##ritis
binge
fluids
nygma
vinnie
##missible
streams
tranq
harboring
1968
mysteriously
deem
hutch
siena
unav
lionheart
lewd
helmets
valentin
compromises
egomaniac
tactic
##writer
hammered
slaughterhouse
235
wanderer
temptations
sleeves
assaulted
fondness
viceroy
outlived
outlaws
summons
dialing
preventing
exhausting
diller
dictated
dictating
hinted
hysterics
##balanced
##bags
measured
orchest
orchids
selective
spiderman
1989
ackland
shithouse
##choly
consciously
coronation
coronado
detonators
repairman
kingsley
anchors
anesthet
injector
injection
integration
integrated
horizons
tatopoul
exhibits
brutus
blackmailer
##covered
persuaded
persuasive
fishermen
gagging
nomination
##schultz
##bowl
##oppable
commentary
steamroller
reflecting
reflections
folklore
pilgrims
ventilation
warehouses
winslow
stunts
inventor
skilled
skillful
gorillas
puddle
hemis
hemoglob
havoc
caroline
granada
granville
grocer
handyman
distractions
superstar
tortures
splendidly
rehearsed
cassidy
brushes
writings
riddled
historic
observant
voyeur
vibration
parental
visualize
idealistic
selves
unexpl
dismissal
interrogate
hallucin
derelict
eagles
hanson
odette
tummy
##waves
reinstate
reassigned
reassignment
outsiders
bronze
exclusively
1971
dixon
gazette
gazelle
inkling
heaviest
canadians
crusade
tombstone
scholars
brewster
obstruction
obstacle
pendant
##veston
starkiller
sodding
socked
slamming
1938
insectopia
manufactured
zepp
##eeeeee
dawg
consumption
hawaiian
initiating
ichiro
tacky
voucher
inhuman
stooling
abdul
sponsored
traveller
travelled
evacuation
1997
1993
fatalities
accomplishment
achievements
aracht
tenderness
unstoppable
1948
galaxies
australian
navigate
nicholai
overwhelm
bianchinn
erect
hasta
ludovico
nevins
proteins
enquiries
unwanted
disagre
##criptions
sanctimon
boosted
fiends
cuffed
lysine
advertise
disguised
disguises
triumphant
faithfulness
refrigerated
270
cortina
gaigern
oozing
reneg
sshhh
vowed
grooms
diagnose
chainsaw
disgraceful
dashboard
##uuu
dolphin
scrapes
interpreted
indulging
indulgence
anticipation
sufficiently
stabilized
encountered
414
veterinarian
chiang
ambitions
slayer
brazilian
installation
1952
1953
portraits
dispatcher
encouragement
gemini
obeying
pamph
antonia
stimulating
lilacs
maui
polaroid
presumably
regulatory
condemn
##heimer
irritable
scrubbing
optimist
accelerate
flawed
strolling
slacking
indoor
constructive
lumps
lumpur
##ihan
##space
##yyy
revels
spooning
removing
embezzler
emptiness
croak
disruptors
babysit
colombia
jeopardy
sleazebag
dwarves
adoption
manifestation
subpoenaed
botany
hedges
enchantment
unprotected
waldman
waldrip
harriman
burgess
distribute
distribution
obscure
exceeding
exceedingly
hypothetically
hypothesis
hypothalamus
vincenzo
aqui
authors
shabby
shagging
solely
scruffy
inflation
inflamed
delusional
disclosure
eyeballing
furiously
juanito
wheatley
fertility
squealing
whittier
chunks
convergence
brockovich
downloaded
unloading
grooming
monstrosity
deserter
deserving
deserting
bullshittin
artificially
absorbed
umbil
hyperdrive
contractors
flemming
koreans
kittens
worshipping
worshippers
eloi
demolished
misunderstandings
synthes
bosnia
keri
pansies
##ranean
heineken
steroids
spawn
spontaneously
grubbel
glamorous
textbook
paws
protocols
cautiously
azte
coyote
clemency
iíll
##101
reptilian
foreseen
fracture
blurry
undertaken
intercepted
obedient
infrastructure
deterrent
subtlety
strickland
1922
1920
oooooh
cheerleading
cheerleaders
ultimat
insecurity
lazarro
masturbate
masturbation
33rd
63rd
dandridge
dwelling
tessier
newlyweds
crissake
highlander
adventurous
transplants
bankruptcy
squatting
turbulence
reproduce
hypnos
hollerin
philosophers
attachment
flaemmchen
78s
celest
ibm
rendered
tinker
pronounce
alfonse
orbital
orbiting
unbear
quintus
blooming
flamethrower
inserted
appease
appeals
awwww
incorrect
incinerator
uncertainty
rupture
illuminate
norwegians
electrified
karajan
##ebrae
grasshopper
norris
oberfeld
vindict
vindication
vanderhof
yummy
chalice
manslaughter
twinkie
mayolia
quellek
payoffs
invaluable
indigestion
infatuated
masquerading
squeezing
alexandretta
puncture
dentonvale
mammal
mammoth
unpacked
arabia
enlarged
pingala
rouge
tuscarora
heinous
heinrich
reapers
shrivel
arounna
unimagin
unimportant
intestines
cranberry
crammed
disobeyed
procession
proximity
contempl
contempor
desecration
christsakes
incriminating
transformed
imaginable
empathy
seagulls
##ophobic
mobilize
acquisitions
corpuscles
pushers
dueling
gatling
jugular
plymouth
rhino
zeros
zerzura
zorg
zorin
anarchy
chigurh
prestige
degrading
spunky
bridesmaid
marlboros
tommi
pauly
pauley
singularity
roadblocks
afflicted
taxpayers
griffin
dictatorship
accompanying
accompanied
hitchhiking
mosquito
echoes
jitters
lubric
rapport
youíre
gooks
##antiated
chanting
overstreet
blossom
cognac
hoffa
hoffman
prohibited
trafficking
recyc
harriet
delicately
legislation
owwww
melancholy
disorientation
acheson
elderly
fouled
juggling
moocher
xk101
yokel
hexaval
chirop
uplink
splinters
uninv
intravenous
lacerations
indifferent
airstrip
configuration
consistency
snorri
submitting
filmmaker
fatigued
berthier
mongoloid
rehabilitation
ecstasy
deteriorate
synagogue
wannabes
eichmann
xanax
inaugural
welded
ligourin
nodding
arbitr
brodsky
cliché
overpowering
unquote
intolerable
undiscovered
maitre
elitist
harkonnens
obituary
delinquent
mccloy
mortgages
renowned
unaccount
exhilarating
eyewitnesses
nouveau
nathalie
wrecks
yori
##craper
##building
##animous
gospel
notorious
prolong
atheist
demeaning
deetzes
plunging
clobbered
bladder
flannel
disadvantage
interstellar
recombinant
commissar
glaucus
tehronne
barbossa
sydney
geometry
calamity
proprietor
sunflowers
superficial
melodramatic
psychoanaly
deactivate
lobotomy
jiffy
kgb
mertin
sallah
tussle
forfeit
chutney
herodotus
aluminum
manfredi
ohmigod
##abagina
sphinx
caramels
unattractive
unruly
drossos
blundering
marvellous
marjorie
scarlet
swhati
disastrous
disengage
tomahawk
divinity
dahmer
gluttony
skedaddle
subversive
unconditional
doubting
rockefeller
demerol
kenilworth
seatbelt
disposable
boomerang
nihil
laundromat
rawlston
egotistical
unearthed
vocabulary
aeroplane
guerrilla
mitzvah
giovanni
ditto
eileen
fenster
fuhrer
fhloston
gesserit
gaiijin
hanoi
jankis
kedward
kutusov
kestenbaum
kundun
laredo
mutha
ointment
rusesabagina
tarleton
vannacutt
zephram
##teacher
toledo
whorfin
meirschultz
doomsday
knapsack
neanderth
cholera
willoughby
fromberge
conundrum
trombone
amsterdam
unannounced
unmarried
scissors
scapego
trychtich
insufficient
insurrection
dauntless
presbyter
skyscraper
charcoal
charismatic
indeterminate
jezebel
calrissian
distasteful
impregnable
merciless
tremoille
treacherous
misinformed
extracurricular
gasparilla
mcluhan
langenkamp
switchblade
lindfarne
hypocrisy
chewbacca
siegfried
katmandu
mulvihill
ultrasound
tuberculosis
jennyhaydn
tattaglias
tatopoulos
hemoglobin
bianchinni
sanctimonious
hexavalent
